{
  "version": "1.0",
  "truncation": null,
  "padding": null,
  "added_tokens": [
    {
      "id": 0,
      "content": "[PAD]",
      "single_word": false,
      "lstrip": false,
      "rstrip": false,
      "normalized": false,
      "special": true
    },
    {
      "id": 1,
      "content": "[CLS]",
      "single_word": false,
      "lstrip": false,
      "rstrip": false,
      "normalized": false,
      "special": true
    },
    {
      "id": 2,
      "content": "[SEP]",
      "single_word": false,
      "lstrip": false,
      "rstrip": false,
      "normalized": false,
      "special": true
    },
    {
      "id": 3,
      "content": "[MASK]",
      "single_word": false,
      "lstrip": false,
      "rstrip": false,
      "normalized": false,
      "special": true
    },
    {
      "id": 4,
      "content": "[UNK]",
      "single_word": false,
      "lstrip": false,
      "rstrip": false,
      "normalized": false,
      "special": true
    }
  ],
  "normalizer": null,
  "pre_tokenizer": null,
  "post_processor": null,
  "decoder": null,
  "model": {
    "type": "BPE",
    "dropout": null,
    "unk_token": "[UNK]",
    "continuing_subword_prefix": null,
    "end_of_word_suffix": null,
    "fuse_unk": false,
    "vocab": {
      "[PAD]": 0,
      "[CLS]": 1,
      "[SEP]": 2,
      "[MASK]": 3,
      "[UNK]": 4,
      "在": 5,
      "地球": 6,
      "上": 7,
      "为什么": 8,
      "没有": 9,
      "的": 10,
      "感觉": 11,
      "，": 12,
      "重力": 13,
      "作用": 14,
      "一直": 15,
      "是": 16,
      "指向": 17,
      "因此": 18,
      "\n": 19,
      "只要": 20,
      "头": 21,
      "远离": 22,
      "人们": 23,
      "就": 24,
      "回": 25,
      "感到": 26,
      "。": 27,
      "请问": 28,
      "这起": 29,
      "交通事故": 30,
      "谁": 31,
      "责任": 32,
      "居多": 33,
      "?": 34,
      "小车": 35,
      "和": 36,
      "摩托车": 37,
      "发生": 38,
      "事故": 39,
      "无": 40,
      "红绿灯": 41,
      "十字路口": 42,
      "小": 43,
      "停车": 44,
      "看看": 45,
      "左右": 46,
      "觉得": 47,
      "安全": 48,
      "情况": 49,
      "下": 50,
      "刹车": 51,
      "慢慢": 52,
      "以": 53,
      "时速": 54,
      "10": 55,
      "公里": 56,
      "速度": 57,
      "行驶": 58,
      "过": 59,
      "路口": 60,
      "好": 61,
      "出": 62,
      "到": 63,
      "正中": 64,
      "时": 65,
      "被": 66,
      "左边": 67,
      "突然": 68,
      "快速": 69,
      "过来": 70,
      "撞": 71,
      "车头": 72,
      "前": 73,
      "主": 74,
      "摔": 75,
      "膝盖": 76,
      "伤": 77,
      "脸部": 78,
      "如果": 79,
      "双方": 80,
      "都": 81,
      "有": 82,
      "的话": 83,
      "大概": 84,
      "各": 85,
      "占": 86,
      "？": 87,
      "通过": 88,
      "信号": 89,
      "控制": 90,
      "应该": 91,
      "减速": 92,
      "慢性": 93,
      "让": 94,
      "右边": 95,
      "车": 96,
      "先行": 97,
      "按": 98,
      "你": 99,
      "说": 100,
      "好像": 101,
      "汽车": 102,
      "所以": 103,
      "可能": 104,
      "当然": 105,
      "还要": 106,
      "看": 107,
      "是否": 108,
      "齐全": 109,
      "饮酒": 110,
      "等": 111,
      "具体": 112,
      "由": 113,
      "交警": 114,
      "调查": 115,
      "后": 116,
      "认定": 117,
      "请教": 118,
      "怎么": 119,
      "能": 120,
      "很快": 121,
      "洗": 122,
      "干净": 123,
      "什么": 124,
      "方法": 125,
      "先": 126,
      "用": 127,
      "清水": 128,
      "冲": 129,
      "一下": 130,
      ",": 131,
      "食盐": 132,
      "反复": 133,
      "直到": 134,
      "肠": 135,
      "黏液": 136,
      "全": 137,
      "去掉": 138,
      "为止": 139,
      "冲洗": 140,
      "最好": 141,
      "把": 142,
      "油": 143,
      "一些": 144,
      "再": 145,
      "下锅": 146,
      "毛孔": 147,
      "粗大": 148,
      "怎么办": 149,
      "我": 150,
      "脸上": 151,
      "长": 152,
      "豆豆": 153,
      "额头": 154,
      "鼻子": 155,
      "很": 156,
      "严重": 157,
      ".": 158,
      "脸": 159,
      "一点": 160,
      "平整": 161,
      "地方": 162,
      "不": 163,
      "知道": 164,
      "要": 165,
      "请": 166,
      "各位": 167,
      "教教": 168,
      "谢谢": 169,
      "这是": 170,
      "很多": 171,
      "人": 172,
      "关心": 173,
      "问题": 174,
      "此": 175,
      "我们": 176,
      "关注": 177,
      "收缩": 178,
      "与": 179,
      "舒张": 180,
      "曾": 181,
      "不止一次": 182,
      "地": 183,
      "看过": 184,
      "一个": 185,
      "关于": 186,
      "洗脸": 187,
      "就是": 188,
      "：": 189,
      "时应": 190,
      "先用": 191,
      "温热": 192,
      "水": 193,
      "打开": 194,
      "以便": 195,
      "里": 196,
      "能够": 197,
      "顺利": 198,
      "去": 199,
      "洗完": 200,
      "冷水": 201,
      "有助于": 202,
      "这样": 203,
      "说法": 204,
      "虽然": 205,
      "肉眼": 206,
      "观察": 207,
      "不过": 208,
      "医生": 209,
      "回答": 210,
      "却是": 211,
      "至今": 212,
      "还": 213,
      "针对": 214,
      "开": 215,
      "收": 216,
      "做出": 217,
      "任何": 218,
      "临床": 219,
      "报告": 220,
      "": 221,
      "然而": 222,
      "对于": 223,
      "变": 224,
      "大": 225,
      "缩小": 226,
      "明确": 227,
      "数据": 228,
      "证明": 229,
      "皮肤科": 230,
      "指出": 231,
      "的确": 232,
      "关键": 233,
      "在于": 234,
      "肌肤": 235,
      "细胞": 236,
      "间": 237,
      "度": 238,
      "充足": 239,
      "空隙": 240,
      "变小": 241,
      "进而": 242,
      "往": 243,
      "自然": 244,
      "了": 245,
      "只是": 246,
      "原本": 247,
      "明显": 248,
      "几乎": 249,
      "看不见": 250,
      "属于": 251,
      "任务": 252,
      "仔细": 253,
      "会": 254,
      "发现": 255,
      "年轻": 256,
      "纹理": 257,
      "呈": 258,
      "米": 259,
      "字形": 260,
      "彼此": 261,
      "来回": 262,
      "穿梭": 263,
      "线条": 264,
      "保住": 265,
      "水分": 266,
      "较": 267,
      "厚实": 268,
      "也": 269,
      "但": 270,
      "当": 271,
      "老化": 272,
      "变成": 273,
      "川": 274,
      "平行": 275,
      "薄": 276,
      "、": 277,
      "无法": 278,
      "两大": 279,
      "弹性": 280,
      "可以": 281,
      "减少": 282,
      "阻塞": 283,
      "物": 284,
      "它": 285,
      "养成": 286,
      "清理": 287,
      "角质": 288,
      "习惯": 289,
      "不要": 290,
      "等到": 291,
      "粉刺": 292,
      "黑头": 293,
      "现象": 294,
      "才": 295,
      "处理": 296,
      "以往": 297,
      "许多": 298,
      "总是": 299,
      "焦点": 300,
      "仅仅": 301,
      "放在": 302,
      "清洁": 303,
      "部分": 304,
      "这": 305,
      "重要": 306,
      "但是": 307,
      "组织": 308,
      "方面": 309,
      "一致": 310,
      "公认": 311,
      "成分": 312,
      "主要": 313,
      "功能": 314,
      "调整": 315,
      "角化": 316,
      "过程": 317,
      "去除": 318,
      "表层": 319,
      "老": 320,
      "废": 321,
      "变得": 322,
      "平滑": 323,
      "所": 324,
      "使用": 325,
      "浓度": 326,
      "更": 327,
      "成效": 328,
      "息息相关": 329,
      "帮": 330,
      "患者": 331,
      "进行": 332,
      "多": 333,
      "3%": 334,
      "－": 335,
      "％": 336,
      "；": 337,
      "而": 338,
      "则": 339,
      "限制": 340,
      "0": 341,
      "．": 342,
      "2%": 343,
      "1": 344,
      "5": 345,
      "比如": 346,
      "碧": 347,
      "II": 348,
      "精致": 349,
      "霜": 350,
      "细致": 351,
      "精华": 352,
      "露": 353,
      "含有": 354,
      "不同": 355,
      "比例": 356,
      "帮助": 357,
      "角质层": 358,
      "全面": 359,
      "改善": 360,
      "肤质": 361,
      "另外": 362,
      "保湿": 363,
      "干性": 364,
      "面临": 365,
      "危机": 366,
      "大部分": 367,
      "是因为": 368,
      "保养": 369,
      "不当": 370,
      "所致": 371,
      "来说": 372,
      "像": 373,
      "适合": 374,
      "自己": 375,
      "造成": 376,
      "表皮": 377,
      "正常": 378,
      "长期": 379,
      "堆积": 380,
      "变大": 381,
      "除了": 382,
      "外": 383,
      "成为": 384,
      "必要": 385,
      "门": 386,
      "标榜": 387,
      "产品": 388,
      "同时": 389,
      "一": 390,
      "形成": 391,
      "原因": 392,
      "引起": 393,
      "后天": 394,
      "补": 395,
      "2": 396,
      "皮肤": 397,
      "皮脂": 398,
      "分泌": 399,
      "旺盛": 400,
      "平时": 401,
      "及时": 402,
      "做": 403,
      "护理": 404,
      "天天": 405,
      "清除": 406,
      "灰尘": 407,
      "污垢": 408,
      "久而久之": 409,
      "堵塞": 410,
      "3": 411,
      "多年": 412,
      "长痘": 413,
      "反反复复": 414,
      "多次": 415,
      "发作": 416,
      "痘痘": 417,
      "外界": 418,
      "寄生": 419,
      "活": 420,
      "寄生虫": 421,
      "不断": 422,
      "繁殖": 423,
      "客气": 424,
      "吃": 425,
      "肉": 426,
      "喝": 427,
      "血": 428,
      "洞": 429,
      "看起来": 430,
      "就象": 431,
      "二": 432,
      "办法": 433,
      "特色": 434,
      "美容": 435,
      "达到": 436,
      "刺激": 437,
      "激活": 438,
      "辅以": 439,
      "正确": 440,
      "家庭": 441,
      "保持": 442,
      "细腻": 443,
      "每天": 444,
      "黑": 445,
      "本草": 446,
      "按摩": 447,
      "几分钟": 448,
      "垃圾": 449,
      "珍珠粉": 450,
      "并且": 451,
      "保留": 452,
      "拍": 453,
      "少量": 454,
      "保证": 455,
      "不再": 456,
      "光滑": 457,
      "4": 458,
      "时要": 459,
      "蒸汽": 460,
      "导出": 461,
      "液": 462,
      "容易": 463,
      "有效": 464,
      "防止": 465,
      "定期": 466,
      "6": 467,
      "天然": 468,
      "精油": 469,
      "烦恼": 470,
      "务必": 471,
      "做好": 472,
      "不会": 473,
      "因为": 474,
      "导致": 475,
      "渐渐": 476,
      "别": 477,
      "认为": 478,
      "不错": 479,
      "朋友": 480,
      "注意": 481,
      "没": 482,
      "几年": 483,
      "她": 484,
      "进入": 485,
      "皱纹": 486,
      "起来": 487,
      "行动": 488,
      "！": 489,
      "类型": 490,
      "因": 491,
      "油性": 492,
      "油性皮肤": 493,
      "混合性": 494,
      "T": 495,
      "型": 496,
      "部位": 497,
      "特别": 498,
      "过剩": 499,
      "毛囊": 500,
      "膨胀": 501,
      "随着": 502,
      "年龄": 503,
      "增长": 504,
      "越来越": 505,
      "制造": 506,
      "并": 507,
      "上层": 508,
      "待": 509,
      "之后": 510,
      "外层": 511,
      "方式": 512,
      "使得": 513,
      "其": 514,
      "新陈代谢": 515,
      "脱落": 516,
      "致使": 517,
      "扩大": 518,
      "-": 519,
      "化妆水": 520,
      "敷": 521,
      "或": 522,
      "起到": 523,
      "收敛": 524,
      "效果": 525,
      "毛巾": 526,
      "冷敷": 527,
      "专用": 528,
      "冰箱": 529,
      "冰": 530,
      "几秒钟": 531,
      "水果": 532,
      "用来": 533,
      "它们": 534,
      "柔软": 535,
      "抑制": 536,
      "油脂": 537,
      "多重": 538,
      "功效": 539,
      "找": 540,
      "对": 541,
      "易": 542,
      "收紧": 543,
      "柠檬汁": 544,
      "中": 545,
      "几滴": 546,
      "可": 547,
      "产生": 548,
      "不可": 549,
      "太": 550,
      "浓": 551,
      "且": 552,
      "将": 553,
      "直接": 554,
      "涂抹": 555,
      ")": 556,
      "+": 557,
      "事先": 558,
      "准备": 559,
      "小时": 560,
      "喷": 561,
      "清爽": 562,
      "又": 563,
      "鸡蛋": 564,
      "橄榄油": 565,
      "打散": 566,
      "加入": 567,
      "半个": 568,
      "及": 569,
      "一点点": 570,
      "充分": 571,
      "搅拌": 572,
      "均匀": 573,
      "汁": 574,
      "使": 575,
      "二者": 576,
      "混合": 577,
      "平日": 578,
      "面膜": 579,
      "储存": 580,
      "一周": 581,
      "次": 582,
      "促进": 583,
      "7": 584,
      "取": 585,
      "栗子": 586,
      "蜂蜜": 587,
      "面部": 588,
      "富有": 589,
      "治疗": 590,
      "癫痫": 591,
      "最": 592,
      "权威": 593,
      "医院": 594,
      "哪些": 595,
      "癫痫病": 596,
      "时候": 597,
      "很长": 598,
      "时间": 599,
      "不是": 600,
      "一两天": 601,
      "治好": 602,
      "而且": 603,
      "一两个": 604,
      "月": 605,
      "想要": 606,
      "治": 607,
      "那么": 608,
      "就要": 609,
      "专业": 610,
      "只有": 611,
      "有没有": 612,
      "先进": 613,
      "设备": 614,
      "这些": 615,
      "赶紧": 616,
      "找到": 617,
      "正规": 618,
      "以外": 619,
      "治病": 620,
      "一样": 621,
      "选择": 622,
      "事情": 623,
      "选": 624,
      "疾病": 625,
      "有着": 626,
      "专家": 627,
      "才能": 628,
      "得到": 629,
      "先要": 630,
      "病情": 631,
      "确定": 632,
      "清楚": 633,
      "然后": 634,
      "根据": 635,
      "来": 636,
      "好转": 637,
      "降压药": 638,
      "喜": 639,
      "两种": 640,
      "药": 641,
      "各有": 642,
      "特点": 643,
      "哪种": 644,
      "服用": 645,
      "180": 646,
      "95": 647,
      "推荐": 648,
      "“": 649,
      "＋": 650,
      "”": 651,
      "区": 652,
      "无尽": 653,
      "工会": 654,
      "吗": 655,
      "你们": 656,
      "解散": 657,
      "听": 658,
      "神": 659,
      "成员": 660,
      "副会长": 661,
      "卷": 662,
      "财产": 663,
      "跑": 664,
      "路": 665,
      "(": 666,
      "几千": 667,
      "W": 668,
      "呢": 669,
      "哎": 670,
      "真是": 671,
      "人心": 672,
      "老师": 673,
      "青": 674,
      "明天": 675,
      "跌": 676,
      "散户": 677,
      "卖出": 678,
      "主力": 679,
      "资金": 680,
      "却": 681,
      "周三": 682,
      "该股": 683,
      "处于": 684,
      "上市": 685,
      "以来": 686,
      "低迷": 687,
      "状态": 688,
      "从": 689,
      "成交量": 690,
      "得": 691,
      "现在": 692,
      "也许": 693,
      "介入": 694,
      "形态": 695,
      "还会": 696,
      "便宜": 697,
      "筹码": 698,
      "以后": 699,
      "收集": 700,
      "不足以": 701,
      "仓": 702,
      "地步": 703,
      "建议": 704,
      "等等": 705,
      "只": 706,
      "股票": 707,
      "将来": 708,
      "看好": 709,
      "不言而喻": 710,
      "短线": 711,
      "操作": 712,
      "标志": 713,
      "趋势": 714,
      "城内": 715,
      "还是": 716,
      "例如": 717,
      ":": 718,
      "the": 719,
      "of": 720,
      "China": 721,
      "越南": 722,
      "中国": 723,
      "南面": 724,
      "综合": 725,
      "该": 726,
      "字典": 727,
      "还有": 728,
      "两个": 729,
      "例句": 730,
      "西班牙": 731,
      "欧洲": 732,
      "南部": 733,
      "墨西哥": 734,
      "美国": 735,
      "古代": 736,
      "官职": 737,
      "拜": 738,
      "常用": 739,
      "以下": 740,
      "词语": 741,
      "①": 742,
      "一定": 743,
      "授予": 744,
      "某种": 745,
      "任命": 746,
      "《": 747,
      "封建": 748,
      "论": 749,
      "》": 750,
      "不到": 751,
      "之": 752,
      "矣": 753,
      "②": 754,
      "除": 755,
      "史记": 756,
      "·": 757,
      "侯": 758,
      "已": 759,
      "尽": 760,
      "未": 761,
      "吾": 762,
      "亦": 763,
      "欲": 764,
      "③": 765,
      "迁": 766,
      "调动": 767,
      "一般": 768,
      "指": 769,
      "提升": 770,
      "传": 771,
      "郎中": 772,
      "为": 773,
      "流放": 774,
      "夫人": 775,
      "［": 776,
      "］": 777,
      "特指": 778,
      "在外": 779,
      "长安": 780,
      "诗": 781,
      "外地": 782,
      "官": 783,
      "④": 784,
      "选拔": 785,
      "提拔": 786,
      "九江": 787,
      "太守": 788,
      "叫": 789,
      "转": 790,
      "初": 791,
      "年": 792,
      "⑤": 793,
      "有罪": 794,
      "得以": 795,
      "赏": 796,
      "）": 797,
      "降级": 798,
      "书": 799,
      "⑥": 800,
      "罪": 801,
      "京城": 802,
      "任职": 803,
      "哭": 804,
      "司马": 805,
      "封建社会": 806,
      "大臣": 807,
      "年老": 808,
      "请求": 809,
      "辞职": 810,
      "意思": 811,
      "赐": 812,
      "身体": 813,
      "回到": 814,
      "家乡": 815,
      "密度": 816,
      "小于": 817,
      "小球": 818,
      "倾斜": 819,
      "下降": 820,
      "给出": 821,
      "解题": 822,
      "步骤": 823,
      "题目": 824,
      "转动": 825,
      "向": 826,
      "方向": 827,
      "运动": 828,
      "解": 829,
      "水中": 830,
      "设有": 831,
      "体积": 832,
      "相同": 833,
      "水球": 834,
      "这个": 835,
      "同一": 836,
      "位置": 837,
      "（": 838,
      "距离": 839,
      "由于": 840,
      "大于": 841,
      "质量": 842,
      "动": 843,
      "满足": 844,
      "受到": 845,
      "合力": 846,
      "提供": 847,
      "这时": 848,
      "F": 849,
      "=": 850,
      "mv": 851,
      "^": 852,
      "/": 853,
      "r": 854,
      "需要": 855,
      "最终": 856,
      "最近": 857,
      "处": 858,
      "哪里": 859,
      "沙发": 860,
      "家具": 861,
      "卖": 862,
      "地址": 863,
      "中华": 864,
      "大街": 865,
      "超市": 866,
      "即": 867,
      "讲解": 868,
      "如图所示": 869,
      "A": 870,
      "B": 871,
      "圆": 872,
      "直径": 873,
      "两端": 874,
      "小张": 875,
      "点": 876,
      "小王": 877,
      "出发": 878,
      "他们": 879,
      "第一次": 880,
      "相遇": 881,
      "C": 882,
      "80": 883,
      "D": 884,
      "第二次": 885,
      "60": 886,
      "求": 887,
      "周长": 888,
      "设": 889,
      "方程": 890,
      "解答": 891,
      "长为": 892,
      "X": 893,
      "*": 894,
      "360": 895,
      "走": 896,
      "比": 897,
      "路程": 898,
      "乘": 899,
      "等于": 900,
      "其中": 901,
      "之一": 902,
      "AB": 903,
      "AC": 904,
      "CD": 905,
      "８": 906,
      "０": 907,
      "＊": 908,
      "２": 909,
      "个人": 910,
      "增加": 911,
      "两次": 912,
      "加": 913,
      "AD": 914,
      "３": 915,
      "４": 916,
      "Ａ": 917,
      "Ｂ": 918,
      "半": 919,
      "６": 920,
      "＝": 921,
      "１": 922,
      "BC": 923,
      "Word": 924,
      "文档": 925,
      "一页": 926,
      "文字": 927,
      "怎样": 928,
      "真": 929,
      "布满": 930,
      "右键": 931,
      "段落": 932,
      "里面": 933,
      "字体": 934,
      "加大": 935,
      "大事": 936,
      "武汉": 937,
      "接到": 938,
      "群众": 939,
      "天": 940,
      "分局": 941,
      "天桥": 942,
      "炸弹": 943,
      "民警": 944,
      "一起": 945,
      "现场": 946,
      "桥梁": 947,
      "红色": 948,
      "小心翼翼": 949,
      "拆开": 950,
      "报纸": 951,
      "包裹": 952,
      "最后": 953,
      "果然": 954,
      "个": 955,
      "一对": 956,
      "王": 957,
      "…": 958,
      "警察": 959,
      "表示": 960,
      "严肃": 961,
      "追究": 962,
      "报警": 963,
      "着实": 964,
      "忽悠": 965,
      "以为": 966,
      "简单": 967,
      "地理": 968,
      "基础知识": 969,
      "填空": 970,
      "100%": 971,
      "考点": 972,
      "知识": 973,
      "清单": 974,
      "地图": 975,
      "面对": 976,
      "_": 977,
      "左": 978,
      "标的": 979,
      "箭头": 980,
      "方": 981,
      "指示": 982,
      "方格": 983,
      "状": 984,
      "图": 985,
      "辨别": 986,
      "南": 987,
      "北纬": 988,
      "纬度": 989,
      "数值": 990,
      "向北": 991,
      "递增": 992,
      "东": 993,
      "向东": 994,
      "经": 995,
      "向西": 996,
      "南北": 997,
      "极为": 998,
      "中心": 999,
      "标出": 1000,
      "自转": 1001,
      "顺时针": 1002,
      "极": 1003,
      "东西": 1004,
      "自": 1005,
      "东经": 1006,
      "度数": 1007,
      "增大": 1008,
      "减小": 1009,
      "反之": 1010,
      "概念": 1011,
      "实地": 1012,
      "程度": 1013,
      "形式": 1014,
      "式": 1015,
      "线段": 1016,
      "用途": 1017,
      "地点": 1018,
      "实际": 1019,
      "大小": 1020,
      "比较": 1021,
      "分母": 1022,
      "愈": 1023,
      "范围": 1024,
      "内容": 1025,
      "粗略": 1026,
      "详细": 1027,
      "高低": 1028,
      "起伏": 1029,
      "高度": 1030,
      "海拔": 1031,
      "定义": 1032,
      "地形": 1033,
      "密集": 1034,
      "越": 1035,
      "稀疏": 1036,
      "种类": 1037,
      "山顶": 1038,
      "盆地": 1039,
      "山谷": 1040,
      "北": 1041,
      "西": 1042,
      "100": 1043,
      "厘米": 1044,
      "代表": 1045,
      "千米": 1046,
      "不太好": 1047,
      "画": 1048,
      "地面": 1049,
      "某个": 1050,
      "高出": 1051,
      "海平面": 1052,
      "另": 1053,
      "缓": 1054,
      "懂": 1055,
      "啦": 1056,
      "初一": 1057,
      "呀": 1058,
      "呼": 1059,
      "下体": 1060,
      "很痒": 1061,
      "怎么回事": 1062,
      "正好": 1063,
      "例假": 1064,
      "!": 1065,
      "是不是": 1066,
      "关系": 1067,
      "啊": 1068,
      "开始": 1069,
      "得病": 1070,
      "告诉": 1071,
      "我下": 1072,
      "恩": 1073,
      "这种": 1074,
      "天气": 1075,
      "皮疹": 1076,
      "没关系": 1077,
      "澡": 1078,
      "大腿": 1079,
      "根": 1080,
      "附近": 1081,
      "出汗": 1082,
      "那里": 1083,
      "潮湿": 1084,
      "起": 1085,
      "那种": 1086,
      "薄荷": 1087,
      "卫生巾": 1088,
      "ABC": 1089,
      "垫": 1090,
      "手机": 1091,
      "wifi": 1092,
      "型号": 1093,
      "飞行": 1094,
      "模式": 1095,
      "关掉": 1096,
      "或者": 1097,
      "忘记": 1098,
      "密码": 1099,
      "保存": 1100,
      "重新": 1101,
      "连接": 1102,
      "希望": 1103,
      "满意": 1104,
      "好评": 1105,
      "紧急": 1106,
      "避孕药": 1107,
      "月经": 1108,
      "推迟": 1109,
      "多久": 1110,
      "已经": 1111,
      "各人": 1112,
      "体质": 1113,
      "若": 1114,
      "担心": 1115,
      "怀孕": 1116,
      "药店": 1117,
      "买个": 1118,
      "早早": 1119,
      "孕": 1120,
      "试纸": 1121,
      "检测": 1122,
      "七天": 1123,
      "结果": 1124,
      "采纳": 1125,
      "霉菌性": 1126,
      "阴道炎": 1127,
      "会上": 1128,
      "行": 1129,
      "感染": 1130,
      "胎儿": 1131,
      "目前": 1132,
      "可能性": 1133,
      "较大": 1134,
      "25": 1135,
      "号": 1136,
      "于": 1137,
      "五天": 1138,
      "霉菌": 1139,
      "复发": 1140,
      "小苏打": 1141,
      "出来": 1142,
      "不能": 1143,
      "用药": 1144,
      "不痒": 1145,
      "白带": 1146,
      "恶心": 1147,
      "完全": 1148,
      "问": 1149,
      "我能": 1150,
      "阴道": 1151,
      "尽快": 1152,
      "HCG": 1153,
      "无论": 1154,
      "与否": 1155,
      "清洗": 1156,
      "一般说来": 1157,
      "影响": 1158,
      "治愈": 1159,
      "母鸡": 1160,
      "交配": 1161,
      "如何": 1162,
      "受精": 1163,
      "小鸡": 1164,
      "有个": 1165,
      "相对": 1166,
      "接": 1167,
      "完成": 1168,
      "外表": 1169,
      "好象": 1170,
      "肛门": 1171,
      "其实": 1172,
      "解剖": 1173,
      "一只": 1174,
      "输卵管": 1175,
      "尿道": 1176,
      "跟": 1177,
      "哺乳动物": 1178,
      "基本上": 1179,
      "雄性": 1180,
      "差异": 1181,
      "很大": 1182,
      "word": 1183,
      "插入": 1184,
      "键": 1185,
      "居中": 1186,
      "想": 1187,
      "打": 1188,
      "字号": 1189,
      "500": 1190,
      "靠": 1191,
      "下方": 1192,
      "显示": 1193,
      "解决": 1194,
      "高手": 1195,
      "指导": 1196,
      "写出": 1197,
      "多谢": 1198,
      "\"": 1199,
      "菜单": 1200,
      "符号": 1201,
      "图标": 1202,
      "改变": 1203,
      "就行了": 1204,
      "我试": 1205,
      "快点": 1206,
      "长高": 1207,
      "160": 1208,
      "高": 1209,
      "摄入": 1210,
      "钙质": 1211,
      "如": 1212,
      "牛奶": 1213,
      "酸奶": 1214,
      "有益": 1215,
      "跑步": 1216,
      "篮球": 1217,
      "跳": 1218,
      "高等": 1219,
      "每日": 1220,
      "早睡早起": 1221,
      "以免": 1222,
      "错过": 1223,
      "晚上": 1224,
      "生长": 1225,
      "市面上": 1226,
      "中文名": 1227,
      "英文名": 1228,
      "本人": 1229,
      "苏": 1230,
      "女": 1231,
      "释义": 1232,
      "平凡": 1233,
      "安静": 1234,
      "非常": 1235,
      "友善": 1236,
      "女孩": 1237,
      "嘉": 1238,
      "美丽": 1239,
      "甜美": 1240,
      "受欢迎": 1241,
      "16": 1242,
      "男": 1243,
      "宝宝": 1244,
      "8": 1245,
      "颗": 1246,
      "牙齿": 1247,
      "我家": 1248,
      "身高": 1249,
      "体重": 1250,
      "28": 1251,
      "斤": 1252,
      "少": 1253,
      "脚掌": 1254,
      "脚": 1255,
      "有些": 1256,
      "白色": 1257,
      "破皮": 1258,
      "右脚": 1259,
      "像是": 1260,
      "经验": 1261,
      "人事": 1262,
      "一种": 1263,
      "缺乏": 1264,
      "维生素": 1265,
      "青菜": 1266,
      "手足": 1267,
      "脱皮": 1268,
      "软膏": 1269,
      "第二个": 1270,
      "空气": 1271,
      "干燥": 1272,
      "等待": 1273,
      "期间": 1274,
      "湿润": 1275,
      "战场": 1276,
      "盗贼": 1277,
      "为了": 1278,
      "拿": 1279,
      "踏上": 1280,
      "喜欢": 1281,
      "超级": 1282,
      "烂": 1283,
      "FS": 1284,
      "技能": 1285,
      "胜率": 1286,
      "基本": 1287,
      "死": 1288,
      "踢": 1289,
      "骨": 1290,
      "经常": 1291,
      "反而": 1292,
      "1000": 1293,
      "LR": 1294,
      "陷阱": 1295,
      "躲": 1296,
      "拌": 1297,
      "BT": 1298,
      "郁闷": 1299,
      "怎么样": 1300,
      "中立": 1301,
      "说实话": 1302,
      "贼": 1303,
      "对方": 1304,
      "单挑": 1305,
      "不好": 1306,
      "弄": 1307,
      "法术": 1308,
      "轻易": 1309,
      "复活": 1310,
      "战士": 1311,
      "过去": 1312,
      "助攻": 1313,
      "不管": 1314,
      "目标": 1315,
      "拼命": 1316,
      "杀": 1317,
      "尝试": 1318,
      "敌方": 1319,
      "他": 1320,
      "除非": 1321,
      "装备": 1322,
      "牛": 1323,
      "运气": 1324,
      "否则": 1325,
      "很难": 1326,
      "杀掉": 1327,
      "一次": 1328,
      "就算": 1329,
      "回去": 1330,
      "就行": 1331,
      "腹泻": 1332,
      "见效": 1333,
      "奶粉": 1334,
      "已有": 1335,
      "岁": 1336,
      "性别": 1337,
      "张": 1338,
      "奶奶": 1339,
      "检查": 1340,
      "大便": 1341,
      "蒙脱石": 1342,
      "益生菌": 1343,
      "按照": 1344,
      "用量": 1345,
      "给": 1346,
      "孩子": 1347,
      "吃药": 1348,
      "红": 1349,
      "之类": 1350,
      "饭": 1351,
      "为主": 1352,
      "停": 1353,
      "确实": 1354,
      "不愈": 1355,
      "考虑": 1356,
      "含": 1357,
      "乳糖": 1358,
      "配方": 1359,
      "一元": 1360,
      "车间": 1361,
      "名": 1362,
      "工人": 1363,
      "生产": 1364,
      "两": 1365,
      "栓": 1366,
      "两头": 1367,
      "一套": 1368,
      "12": 1369,
      "18": 1370,
      "多少": 1371,
      "一天": 1372,
      "刚好": 1373,
      "配套": 1374,
      "要求": 1375,
      "快": 1376,
      "21": 1377,
      "气体": 1378,
      "分别": 1379,
      "溶液": 1380,
      "出现": 1381,
      "下述": 1382,
      "紫色": 1383,
      ";": 1384,
      "紫": 1385,
      "橙色": 1386,
      "无色": 1387,
      "蓝色": 1388,
      "加热": 1389,
      "恢复": 1390,
      "浑浊": 1391,
      "澄清": 1392,
      "淡黄色": 1393,
      "沉淀": 1394,
      "酸性": 1395,
      "高锰酸钾": 1396,
      "工作": 1397,
      "职业": 1398,
      "赚钱": 1399,
      "一门": 1400,
      "俗话说": 1401,
      "成功": 1402,
      "努力": 1403,
      "机遇": 1404,
      "先天": 1405,
      "条件": 1406,
      "重庆": 1407,
      "尖锐湿疣": 1408,
      "常规": 1409,
      "物理疗法": 1410,
      "疣": 1411,
      "较少": 1412,
      "三百": 1413,
      "至": 1414,
      "五百": 1415,
      "花费": 1416,
      "下来": 1417,
      "留下": 1418,
      "疤痕": 1419,
      "此类": 1420,
      "疗法": 1421,
      "费用": 1422,
      "患病": 1423,
      "常": 1424,
      "惨不忍睹": 1425,
      "体": 1426,
      "内部": 1427,
      "女性": 1428,
      "生殖道": 1429,
      "内": 1430,
      "采用": 1431,
      "手术": 1432,
      "其他": 1433,
      "大家": 1434,
      "最为": 1435,
      "病毒": 1436,
      "数量": 1437,
      "价格": 1438,
      "略有不同": 1439,
      "收费": 1440,
      "标准": 1441,
      "各地": 1442,
      "几百": 1443,
      "目的": 1444,
      "健康": 1445,
      "一切": 1446,
      "吧": 1447,
      "西方": 1448,
      "经济学": 1449,
      "论文": 1450,
      "这方面": 1451,
      "尽量": 1452,
      "谱": 1453,
      "京都": 1454,
      "出名": 1455,
      "网站": 1456,
      "上古": 1457,
      "运动会": 1458,
      "有人": 1459,
      "作弊": 1460,
      "下午": 1461,
      "系统": 1462,
      "提示": 1463,
      "可是": 1464,
      "每次": 1465,
      "这次": 1466,
      "几秒": 1467,
      "BUG": 1468,
      "卡": 1469,
      "具体情况": 1470,
      "包": 1471,
      "装满": 1472,
      "完": 1473,
      "下线": 1474,
      "第二天": 1475,
      "马上": 1476,
      "上线": 1477,
      "空": 1478,
      "格": 1479,
      "物品": 1480,
      "活动": 1481,
      "交": 1482,
      "第一": 1483,
      "分为": 1484,
      "四个": 1485,
      "环节": 1486,
      "初步": 1487,
      "了解": 1488,
      "销售": 1489,
      "顾问": 1490,
      "带到": 1491,
      "客户": 1492,
      "分钟": 1493,
      "视频": 1494,
      "介绍": 1495,
      "集团": 1496,
      "历史": 1497,
      "品牌": 1498,
      "诞生": 1499,
      "历程": 1500,
      "企业": 1501,
      "理念": 1502,
      "哲学": 1503,
      "国际": 1504,
      "合作伙伴": 1505,
      "第二": 1506,
      "体验": 1507,
      "剧场": 1508,
      "接下来": 1509,
      "短片": 1510,
      "影片": 1511,
      "共有": 1512,
      "SUV": 1513,
      "两部": 1514,
      "时长": 1515,
      "模拟": 1516,
      "消费者": 1517,
      "感受": 1518,
      "融入": 1519,
      "第三": 1520,
      "互动": 1521,
      "观看": 1522,
      "人员": 1523,
      "顾客": 1524,
      "一共": 1525,
      "组": 1526,
      "每组": 1527,
      "一台": 1528,
      "32": 1529,
      "屏": 1530,
      "电脑": 1531,
      "屏幕": 1532,
      "操控": 1533,
      "接近": 1534,
      "ipad": 1535,
      "集成": 1536,
      "项目": 1537,
      "包括": 1538,
      "研发": 1539,
      "团队": 1540,
      "车身": 1541,
      "颜色": 1542,
      "车辆": 1543,
      "核心技术": 1544,
      "演示": 1545,
      "测试": 1546,
      "20": 1547,
      "第四": 1548,
      "整车": 1549,
      "技术": 1550,
      "陪": 1551,
      "身边": 1552,
      "随时": 1553,
      "示范": 1554,
      "前面": 1555,
      "看似": 1556,
      "鸡肋": 1557,
      "真的": 1558,
      "感兴趣": 1559,
      "做个": 1560,
      "祝": 1561,
      "愉快": 1562,
      "真有": 1563,
      "这么": 1564,
      "巧": 1565,
      "事": 1566,
      "建立": 1567,
      "武器": 1568,
      "手上": 1569,
      "老婆": 1570,
      "万一": 1571,
      "上去": 1572,
      "水平": 1573,
      "肯定": 1574,
      "前所未有": 1575,
      "随便": 1576,
      "取消": 1577,
      "几次": 1578,
      "恭喜": 1579,
      "事实证明": 1580,
      "~": 1581,
      "有所": 1582,
      "建": 1583,
      "人物": 1584,
      "所谓": 1585,
      "ID": 1586,
      "幸运": 1587,
      "合成": 1588,
      "算": 1589,
      "强化": 1590,
      "强": 1591,
      "哪": 1592,
      "爆": 1593,
      "以前": 1594,
      "爽": 1595,
      "一身": 1596,
      "呵呵": 1597,
      "看来": 1598,
      "相信": 1599,
      "裁缝": 1600,
      "玩家": 1601,
      "实验": 1602,
      "专门": 1603,
      "合": 1604,
      "家": 1605,
      "成": 1606,
      "曾经": 1607,
      "石头": 1608,
      "哈哈": 1609,
      "那": 1610,
      "枪": 1611,
      "升级": 1612,
      "仓库": 1613,
      "存放": 1614,
      "安排": 1615,
      "多么": 1616,
      "合理": 1617,
      "各自": 1618,
      "发挥": 1619,
      "强项": 1620,
      "加油": 1621,
      "哦": 1622,
      "安装": 1623,
      "进": 1624,
      "高分": 1625,
      "XP": 1626,
      "安": 1627,
      "指点": 1628,
      "用户": 1629,
      "熟悉": 1630,
      "WindowsXP": 1631,
      "分区": 1632,
      "NTFS": 1633,
      "不仅仅": 1634,
      "一件": 1635,
      "首先": 1636,
      "您": 1637,
      "转换": 1638,
      "支持": 1639,
      "中文": 1640,
      "出错": 1641,
      "说不定": 1642,
      "修复": 1643,
      "相关": 1644,
      "一般来说": 1645,
      "再用": 1646,
      "分出": 1647,
      "OK": 1648,
      "光盘": 1649,
      "放入": 1650,
      "光驱": 1651,
      "引导": 1652,
      "启动": 1653,
      "控制台": 1654,
      "运行": 1655,
      "命令": 1656,
      "建议您": 1657,
      "举动": 1658,
      "费力": 1659,
      "讨好": 1660,
      "九年": 1661,
      "级": 1662,
      "相似": 1663,
      "图形": 1664,
      "梯形": 1665,
      "ABCD": 1666,
      "E": 1667,
      "分成": 1668,
      "9": 1669,
      "AE": 1670,
      "值": 1671,
      "华夏": 1672,
      "公司": 1673,
      "广发": 1674,
      "理财": 1675,
      "题": 1676,
      "买": 1677,
      "南方": 1678,
      "易方达": 1679,
      "基金": 1680,
      "你好": 1681,
      "原名": 1682,
      "时期": 1683,
      "生于": 1684,
      "浙江": 1685,
      "吴国": 1686,
      "之际": 1687,
      "献给": 1688,
      "差": 1689,
      "宠爱": 1690,
      "迷惑": 1691,
      "无心": 1692,
      "掩护": 1693,
      "表现": 1694,
      "爱国": 1695,
      "女子": 1696,
      "高尚": 1697,
      "思想": 1698,
      "传说": 1699,
      "吴": 1700,
      "灭": 1701,
      "五": 1702,
      "湖": 1703,
      "后人": 1704,
      "怀念": 1705,
      "儿子": 1706,
      "学期": 1707,
      "班": 1708,
      "一位": 1709,
      "体育": 1710,
      "关系密切": 1711,
      "高一": 1712,
      "一所": 1713,
      "学得": 1714,
      "相当": 1715,
      "学习": 1716,
      "兴趣": 1717,
      "成绩": 1718,
      "对此": 1719,
      "虽": 1720,
      "劝": 1721,
      "没见": 1722,
      "有时": 1723,
      "即便": 1724,
      "嘴": 1725,
      "答应": 1726,
      "反应": 1727,
      "上课": 1728,
      "连": 1729,
      "课本": 1730,
      "两眼": 1731,
      "着": 1732,
      "发": 1733,
      "直": 1734,
      "根本": 1735,
      "课": 1736,
      "失望": 1737,
      "那个": 1738,
      "女生": 1739,
      "总": 1740,
      "粘": 1741,
      "着急": 1742,
      "解决办法": 1743,
      "我该": 1744,
      "带": 1745,
      "小孩": 1746,
      "心理医生": 1747,
      "转到": 1748,
      "学校": 1749,
      "沟通": 1750,
      "较为": 1751,
      "平等": 1752,
      "交流": 1753,
      "教训": 1754,
      "学习成绩": 1755,
      "女孩子": 1756,
      "么": 1757,
      "这件": 1758,
      "叙述": 1759,
      "母亲": 1760,
      "青春期": 1761,
      "同": 1762,
      "男孩子": 1763,
      "父亲": 1764,
      "合适": 1765,
      "好好": 1766,
      "毕竟": 1767,
      "高中": 1768,
      "潜意识": 1769,
      "强烈": 1770,
      "当成": 1771,
      "成年人": 1772,
      "更好": 1773,
      "足够": 1774,
      "尊重": 1775,
      "反感": 1776,
      "段": 1777,
      "反叛": 1778,
      "心理": 1779,
      "拧": 1780,
      "干": 1781,
      "试想": 1782,
      "愿意": 1783,
      "看待": 1784,
      "眼光": 1785,
      "而是": 1786,
      "家长": 1787,
      "强势": 1788,
      "姿态": 1789,
      "庆幸": 1790,
      "严厉": 1791,
      "缓和": 1792,
      "语气": 1793,
      "激起": 1794,
      "更为": 1795,
      "以上": 1796,
      "算是": 1797,
      "分析": 1798,
      "下面": 1799,
      "主意": 1800,
      "仅供参考": 1801,
      "爸爸": 1802,
      "谈": 1803,
      "交到": 1804,
      "欢迎": 1805,
      "家里": 1806,
      "玩": 1807,
      "一方面": 1808,
      "锻炼": 1809,
      "人际交往": 1810,
      "能力": 1811,
      "硬性": 1812,
      "反对": 1813,
      "交往": 1814,
      "异性": 1815,
      "暗中": 1816,
      "压抑": 1817,
      "与其": 1818,
      "不如": 1819,
      "包容": 1820,
      "所有": 1821,
      "千万别": 1822,
      "单独": 1823,
      "人际": 1824,
      "嘛": 1825,
      "不用": 1826,
      "转学": 1827,
      "说句": 1828,
      "笑话": 1829,
      "这里": 1830,
      "至少": 1831,
      "吸引": 1832,
      "蛮": 1833,
      "吸引力": 1834,
      "这话": 1835,
      "父母": 1836,
      "吓": 1837,
      "做到": 1838,
      "一半": 1839,
      "道理": 1840,
      "在意": 1841,
      "讲道理": 1842,
      "激励": 1843,
      "自尊心": 1844,
      "打击": 1845,
      "举个": 1846,
      "例子": 1847,
      "原来": 1848,
      "所在": 1849,
      "重点": 1850,
      "99%": 1851,
      "记忆": 1852,
      "那年": 1853,
      "年级": 1854,
      "学生": 1855,
      "大学": 1856,
      "我读": 1857,
      "87": 1858,
      "很少": 1859,
      "钱": 1860,
      "读书": 1861,
      "考取": 1862,
      "初中": 1863,
      "毕业": 1864,
      "全年": 1865,
      "结束": 1866,
      "班级": 1867,
      "倒数": 1868,
      "第五": 1869,
      "不想": 1870,
      "读": 1871,
      "后来": 1872,
      "想想": 1873,
      "全市": 1874,
      "高二": 1875,
      "早": 1876,
      "恋爱": 1877,
      "当时": 1878,
      "甚至": 1879,
      "早恋": 1880,
      "女友": 1881,
      "至于": 1882,
      "以及": 1883,
      "走过": 1884,
      "弯路": 1885,
      "体会": 1886,
      "挺": 1887,
      "辛苦": 1888,
      "11": 1889,
      "服": 1890,
      "钢铁": 1891,
      "300": 1892,
      "400": 1893,
      "200": 1894,
      "鼻炎": 1895,
      "鼻塞": 1896,
      "刚": 1897,
      "鼻涕": 1898,
      "黄": 1899,
      "黄色": 1900,
      "睡觉": 1901,
      "打呼噜": 1902,
      "多大": 1903,
      "儿童": 1904,
      "青少年": 1905,
      "多发": 1906,
      "群体": 1907,
      "太小": 1908,
      "自身": 1909,
      "调解": 1910,
      "呼吸系统": 1911,
      "敏感": 1912,
      "脆弱": 1913,
      "流": 1914,
      "一个月": 1915,
      "还好": 1916,
      "不了": 1917,
      "鼻腔": 1918,
      "分泌物": 1919,
      "妨碍": 1920,
      "呼吸": 1921,
      "不像": 1922,
      "大人": 1923,
      "似的": 1924,
      "舒服": 1925,
      "非得": 1926,
      "实在": 1927,
      "忍不住": 1928,
      "打个": 1929,
      "出去": 1930,
      "会得": 1931,
      "试着": 1932,
      "闻": 1933,
      "气味": 1934,
      "味道": 1935,
      "没事": 1936,
      "味觉": 1937,
      "消失": 1938,
      "热水": 1939,
      "倒": 1940,
      "杯子": 1941,
      "小心": 1942,
      "烫": 1943,
      "祛痘": 1944,
      "洗面奶": 1945,
      "长痘痘": 1946,
      "刺激性": 1947,
      "太强": 1948,
      "破坏": 1949,
      "亲": 1950,
      "平常": 1951,
      "熬夜": 1952,
      "辣": 1953,
      "喝点": 1954,
      "睡": 1955,
      "枕头": 1956,
      "颈椎病": 1957,
      "颈椎": 1958,
      "人体": 1959,
      "弯曲": 1960,
      "23": 1961,
      "支撑": 1962,
      "生理": 1963,
      "枕": 1964,
      "怎样才能": 1965,
      "内心": 1966,
      "强大": 1967,
      "学会": 1968,
      "独处": 1969,
      "常说": 1970,
      "忍受": 1971,
      "孤独": 1972,
      "下班": 1973,
      "放学": 1974,
      "计划": 1975,
      "之外": 1976,
      "利用": 1977,
      "放松": 1978,
      "深入": 1979,
      "乐观": 1980,
      "遇到": 1981,
      "乱": 1982,
      "依然": 1983,
      "原有": 1984,
      "风度": 1985,
      "幽默": 1986,
      "平和": 1987,
      "心态": 1988,
      "敏捷": 1989,
      "思维": 1990,
      "思考问题": 1991,
      "解决问题": 1992,
      "规划": 1993,
      "思路": 1994,
      "三": 1995,
      "勇气": 1996,
      "毅力": 1997,
      "来源": 1998,
      "自我": 1999,
      "积蓄": 2000,
      "力量": 2001,
      "接受": 2002,
      "考验": 2003,
      "要是": 2004,
      "想着": 2005,
      "记者": 2006,
      "期望": 2007,
      "必须": 2008,
      "做人": 2009,
      "原则": 2010,
      "四": 2011,
      "精神": 2012,
      "独立": 2013,
      "也就是说": 2014,
      "干扰": 2015,
      "拥有": 2016,
      "依赖": 2017,
      "生存": 2018,
      "树立": 2019,
      "世界观": 2020,
      "人生观": 2021,
      "价值观": 2022,
      "生命": 2023,
      "轨迹": 2024,
      "主线": 2025,
      "下去": 2026,
      "性格": 2027,
      "行为": 2028,
      "生活": 2029,
      "结局": 2030,
      "摆脱": 2031,
      "懒惰": 2032,
      "负责": 2033,
      "负担": 2034,
      "抱怨": 2035,
      "反": 2036,
      "想方设法": 2037,
      "别人": 2038,
      "一方": 2039,
      "想法": 2040,
      "实现": 2041,
      "寄托": 2042,
      "身上": 2043,
      "舞台": 2044,
      "检验": 2045,
      "24": 2046,
      "位": 2047,
      "名人": 2048,
      "全国": 2049,
      "观众": 2050,
      "整个": 2051,
      "场": 2052,
      "智慧": 2053,
      "语言": 2054,
      "表达": 2055,
      "观点": 2056,
      "描述": 2057,
      "愿景": 2058,
      "任何人": 2059,
      "因素": 2060,
      "受阻": 2061,
      "认识": 2062,
      "三个": 2063,
      "自从": 2064,
      "认": 2065,
      "每隔": 2066,
      "或是": 2067,
      "几天": 2068,
      "约": 2069,
      "忙": 2070,
      "话题": 2071,
      "从来": 2072,
      "电话": 2073,
      "聊天": 2074,
      "见面": 2075,
      "聊": 2076,
      "真不知道": 2077,
      "适当": 2078,
      "主动": 2079,
      "爱": 2080,
      "共同": 2081,
      "寻找": 2082,
      "多些": 2083,
      "幸福": 2084,
      "付出": 2085,
      "好处": 2086,
      "水壶": 2087,
      "放": 2088,
      "洗净": 2089,
      "竹": 2090,
      "碳": 2091,
      "煮": 2092,
      "开水": 2093,
      "听说": 2094,
      "松软": 2095,
      "美味": 2096,
      "一片": 2097,
      "完后": 2098,
      "沾": 2099,
      "米粒": 2100,
      "用水": 2101,
      "晾干": 2102,
      "继续": 2103,
      "注意事项": 2104,
      "必需": 2105,
      "a": 2106,
      "c": 2107,
      "再生": 2108,
      "桶": 2109,
      "制作": 2110,
      "矿泉水": 2111,
      "公斤": 2112,
      "自来水": 2113,
      "片": 2114,
      "浸泡": 2115,
      "煮沸": 2116,
      "可口": 2117,
      "冲泡": 2118,
      "茶叶": 2119,
      "咖啡": 2120,
      "爽口": 2121,
      "容器": 2122,
      "玻璃瓶": 2123,
      "不锈钢": 2124,
      "瓶": 2125,
      "维持": 2126,
      "花瓶": 2127,
      "鲜艳": 2128,
      "持久": 2129,
      "上海": 2130,
      "哪家": 2131,
      "2010": 2132,
      "2012": 2133,
      "连续": 2134,
      "获得": 2135,
      "十大": 2136,
      "不孕": 2137,
      "不育": 2138,
      "专科医院": 2139,
      "称号": 2140,
      "2015": 2141,
      "荣获": 2142,
      "上海市": 2143,
      "星级": 2144,
      "教授": 2145,
      "优秀": 2146,
      "诊疗": 2147,
      "从事": 2148,
      "教学": 2149,
      "30": 2150,
      "师从": 2151,
      "我国": 2152,
      "著名": 2153,
      "博士生": 2154,
      "导师": 2155,
      "第十一": 2156,
      "享受": 2157,
      "政府": 2158,
      "现任": 2159,
      "业务": 2160,
      "院长": 2161,
      "学科": 2162,
      "宫": 2163,
      "腹腔镜": 2164,
      "镜": 2165,
      "培训": 2166,
      "主任": 2167,
      "医师": 2168,
      "生殖": 2169,
      "近": 2170,
      "共和": 2171,
      "交叉口": 2172,
      "冬天": 2173,
      "进补": 2174,
      "夏天": 2175,
      "胃": 2176,
      "适宜": 2177,
      "大量": 2178,
      "有时候": 2179,
      "吃些": 2180,
      "清淡": 2181,
      "秋季": 2182,
      "过量": 2183,
      "有害": 2184,
      "有病": 2185,
      "病": 2186,
      "加重": 2187,
      "脾胃": 2188,
      "肝脏": 2189,
      "夏季": 2190,
      "冷饮": 2191,
      "多有": 2192,
      "减弱": 2193,
      "这时候": 2194,
      "承受": 2195,
      "紊乱": 2196,
      "重": 2197,
      "药物": 2198,
      "轻": 2199,
      "食物": 2200,
      "做法": 2201,
      "科学": 2202,
      "高血压": 2203,
      "萝卜": 2204,
      "健胃": 2205,
      "消食": 2206,
      "宽": 2207,
      "胸": 2208,
      "山药": 2209,
      "日常": 2210,
      "食用": 2211,
      "芝麻": 2212,
      "花生": 2213,
      "红枣": 2214,
      "每个": 2215,
      "身体状况": 2216,
      "补品": 2217,
      "燕窝": 2218,
      "人参": 2219,
      "并非": 2220,
      "每种": 2221,
      "对象": 2222,
      "适应症": 2223,
      "应": 2224,
      "实用": 2225,
      "滋补": 2226,
      "缺": 2227,
      "啥": 2228,
      "肉类": 2229,
      "牛羊肉": 2230,
      "经过": 2231,
      "尚未": 2232,
      "完全恢复": 2233,
      "过于": 2234,
      "油腻": 2235,
      "食品": 2236,
      "不易": 2237,
      "消化吸收": 2238,
      "体内": 2239,
      "过多": 2240,
      "糖类": 2241,
      "物质": 2242,
      "诱发": 2243,
      "饮食": 2244,
      "调养": 2245,
      "养生": 2246,
      "气温": 2247,
      "流失": 2248,
      "多汁": 2249,
      "富含": 2250,
      "汤": 2251,
      "粥": 2252,
      "沐浴": 2253,
      "前后": 2254,
      "适量": 2255,
      "饮水": 2256,
      "体力": 2257,
      "消耗": 2258,
      "后应": 2259,
      "饮用": 2260,
      "盐水": 2261,
      "每餐": 2262,
      "瘦身": 2263,
      "护肤": 2264,
      "鱼肉": 2265,
      "鸭肉": 2266,
      "莲子": 2267,
      "丝瓜": 2268,
      "豆腐": 2269,
      "首选": 2270,
      "食材": 2271,
      "荷叶": 2272,
      "主角": 2273,
      "祝你好运": 2274,
      "点击": 2275,
      "居里": 2276,
      "温度": 2277,
      "高于": 2278,
      "失去": 2279,
      "转变": 2280,
      "铁": 2281,
      "钴": 2282,
      "镍": 2283,
      "四种": 2284,
      "金属": 2285,
      "室温": 2286,
      "℃": 2287,
      "低温": 2288,
      "写": 2289,
      "姓名": 2290,
      "身份证": 2291,
      "号码": 2292,
      "哪个": 2293,
      "未成年": 2294,
      "许可": 2295,
      "您好": 2296,
      "正式": 2297,
      "登记": 2298,
      "默认": 2299,
      "未成年人": 2300,
      "制约": 2301,
      "领取": 2302,
      "奖品": 2303,
      "执行": 2304,
      "告诉您": 2305,
      "审核": 2306,
      "成年": 2307,
      "差不多": 2308,
      "不必": 2309,
      "超过": 2310,
      "新": 2311,
      "疲劳": 2312,
      "谢谢您": 2313,
      "诊断": 2314,
      "幻觉": 2315,
      "非": 2316,
      "性": 2317,
      "妄想": 2318,
      "存在": 2319,
      "症状": 2320,
      "心理治疗": 2321,
      "胆结石": 2322,
      "成份": 2323,
      "胆固醇": 2324,
      "胆红素": 2325,
      "钙": 2326,
      "镁": 2327,
      "结石": 2328,
      "之所以": 2329,
      "胆汁": 2330,
      "变异": 2331,
      "盐": 2332,
      "含量": 2333,
      "过少": 2334,
      "溶解": 2335,
      "逐渐": 2336,
      "凝聚": 2337,
      "本质": 2338,
      "内在": 2339,
      "肝": 2340,
      "胆": 2341,
      "代谢": 2342,
      "异常": 2343,
      "从而": 2344,
      "进一步": 2345,
      "恶化": 2346,
      "循环": 2347,
      "吸收": 2348,
      "多余": 2349,
      "增多": 2350,
      "休克": 2351,
      "急性": 2352,
      "胆囊炎": 2353,
      "胰腺炎": 2354,
      "常见": 2355,
      "并发症": 2356,
      "几种": 2357,
      "中毒": 2358,
      "胆道": 2359,
      "梗阻": 2360,
      "细菌": 2361,
      "毒素": 2362,
      "右": 2363,
      "上腹": 2364,
      "疼痛": 2365,
      "黄疸": 2366,
      "高热": 2367,
      "面色苍白": 2368,
      "四肢": 2369,
      "冰冷": 2370,
      "血压": 2371,
      "出血": 2372,
      "胆管": 2373,
      "发炎": 2374,
      "脓肿": 2375,
      "侵蚀": 2376,
      "血管": 2377,
      "剧烈": 2378,
      "绞痛": 2379,
      "吐血": 2380,
      "严重者": 2381,
      "向上": 2382,
      "扩散": 2383,
      "寒战": 2384,
      "全身": 2385,
      "乏力": 2386,
      "胆囊": 2387,
      "坏死": 2388,
      "穿孔": 2389,
      "腹膜炎": 2390,
      "一旦": 2391,
      "脓性": 2392,
      "流入": 2393,
      "腹腔": 2394,
      "尤其": 2395,
      "腹痛": 2396,
      "加剧": 2397,
      "腹肌": 2398,
      "压痛": 2399,
      "腹": 2400,
      "紧张": 2401,
      "进货": 2402,
      "街": 2403,
      "那些": 2404,
      "大批": 2405,
      "试试": 2406,
      "广州": 2407,
      "西路": 2408,
      "工厂": 2409,
      "库存": 2410,
      "辐射": 2411,
      "防护": 2412,
      "通常": 2413,
      "防辐射": 2414,
      "铅": 2415,
      "而成": 2416,
      "板材": 2417,
      "用于": 2418,
      "环境": 2419,
      "施工": 2420,
      "医用": 2421,
      "X光": 2422,
      "CT": 2423,
      "室": 2424,
      "射线": 2425,
      "隔音": 2426,
      "材料": 2427,
      "抵挡": 2428,
      "应用": 2429,
      "医学": 2430,
      "研究": 2431,
      "工程": 2432,
      "必不可少": 2433,
      "保障": 2434,
      "广泛应用": 2435,
      "锅炉": 2436,
      "压力": 2437,
      "管道": 2438,
      "航空航天": 2439,
      "机械": 2440,
      "军工": 2441,
      "电力": 2442,
      "电子": 2443,
      "多个": 2444,
      "行业": 2445,
      "工作者": 2446,
      "受": 2447,
      "危害": 2448,
      "现今": 2449,
      "超": 2450,
      "同类": 2451,
      "进口": 2452,
      "可减轻": 2453,
      "三十": 2454,
      "重量": 2455,
      "外观": 2456,
      "性能": 2457,
      "更佳": 2458,
      "心疼": 2459,
      "拜托": 2460,
      "看得": 2461,
      "太少": 2462,
      "争取": 2463,
      "不得了": 2464,
      "难道": 2465,
      "男生": 2466,
      "美女": 2467,
      "越是": 2468,
      "女神": 2469,
      "且不说": 2470,
      "找个": 2471,
      "女朋友": 2472,
      "一辈子": 2473,
      "暗恋": 2474,
      "幼稚": 2475,
      "值得": 2476,
      "保护": 2477,
      "份": 2478,
      "一生": 2479,
      "机会": 2480,
      "放弃": 2481,
      "贷款": 2482,
      "今年": 2483,
      "好多": 2484,
      "收益": 2485,
      "25%": 2486,
      "八月": 2487,
      "景": 2488,
      "明年": 2489,
      "投资": 2490,
      "打算": 2491,
      "些": 2492,
      "风险": 2493,
      "小点": 2494,
      "怕": 2495,
      "银行": 2496,
      "俺": 2497,
      "贷": 2498,
      "到手": 2499,
      "麻烦": 2500,
      "15": 2501,
      "万": 2502,
      "利息": 2503,
      "赚": 2504,
      "一年": 2505,
      "15%": 2506,
      "20%": 2507,
      "太难": 2508,
      "这年头": 2509,
      "毛色": 2510,
      "为何": 2511,
      "名称": 2512,
      "非洲": 2513,
      "后腿": 2514,
      "短": 2515,
      "狗": 2516,
      "耳朵": 2517,
      "2007": 2518,
      "盛大": 2519,
      "区别": 2520,
      "软件": 2521,
      "免费": 2522,
      "下载": 2523,
      "0.01": 2524,
      "M": 2525,
      "如题": 2526,
      "54": 2527,
      "中型": 2528,
      "坦克": 2529,
      "毫米": 2530,
      "55": 2531,
      "62": 2532,
      "苏联": 2533,
      "主板": 2534,
      "主机": 2535,
      "开关": 2536,
      "故障": 2537,
      "短路": 2538,
      "鼻梁": 2539,
      "难看": 2540,
      "即使": 2541,
      "糟糕": 2542,
      "不妨": 2543,
      "老是": 2544,
      "胸闷": 2545,
      "40": 2546,
      "喘": 2547,
      "讲话": 2548,
      "气": 2549,
      "不够": 2550,
      "一段时间": 2551,
      "为此": 2552,
      "心电图": 2553,
      "没什么": 2554,
      "不知": 2555,
      "主观": 2556,
      "轻者": 2557,
      "重者": 2558,
      "难受": 2559,
      "似乎": 2560,
      "呼吸困难": 2561,
      "器官": 2562,
      "功能性": 2563,
      "最早": 2564,
      "病因": 2565,
      "后果": 2566,
      "一般来讲": 2567,
      "不仅": 2568,
      "生理性": 2569,
      "某些": 2570,
      "病理性": 2571,
      "呼吸道": 2572,
      "气管": 2573,
      "支气管": 2574,
      "肿瘤": 2575,
      "狭窄": 2576,
      "压": 2577,
      "甲状腺肿": 2578,
      "纵隔": 2579,
      "肺部": 2580,
      "肺气肿": 2581,
      "支气管炎": 2582,
      "哮喘": 2583,
      "肺": 2584,
      "气胸": 2585,
      "心脏": 2586,
      "先天性": 2587,
      "心脏病": 2588,
      "风湿性": 2589,
      "冠心病": 2590,
      "膈": 2591,
      "肌": 2592,
      "病变": 2593,
      "症": 2594,
      "体液": 2595,
      "酸碱": 2596,
      "平衡": 2597,
      "失调": 2598,
      "专科": 2599,
      "积极": 2600,
      "今天": 2601,
      "MM": 2602,
      "肺炎": 2603,
      "高烧": 2604,
      "咳嗽": 2605,
      "小叶": 2606,
      "未必": 2607,
      "种": 2608,
      "手段": 2609,
      "确诊": 2610,
      "血液": 2611,
      "白细胞": 2612,
      "计数": 2613,
      "可达": 2614,
      "每": 2615,
      "20000": 2616,
      "—": 2617,
      "30000": 2618,
      "中性": 2619,
      "粒细胞": 2620,
      "80%": 2621,
      "x": 2622,
      "线": 2623,
      "本病": 2624,
      "可见": 2625,
      "大片": 2626,
      "阴影": 2627,
      "典型": 2628,
      "分布": 2629,
      "限于": 2630,
      "大多数": 2631,
      "片状": 2632,
      "感染性": 2633,
      "抗炎": 2634,
      "电信": 2635,
      "黄金": 2636,
      "价位": 2637,
      "350": 2638,
      "420": 2639,
      "做生意": 2640,
      "本事": 2641,
      "qq": 2642,
      "学学": 2643,
      "不算什么": 2644,
      "难": 2645,
      "两天": 2646,
      "嘉实": 2647,
      "稳健": 2648,
      "分红": 2649,
      "净值": 2650,
      "两支": 2651,
      "策略": 2652,
      "有点": 2653,
      "一支": 2654,
      "购": 2655,
      "指数": 2656,
      "型基金": 2657,
      "追踪": 2658,
      "沪": 2659,
      "深": 2660,
      "后市": 2661,
      "经济": 2662,
      "穷": 2663,
      "句": 2664,
      "极端": 2665,
      "彻底": 2666,
      "现代汉语": 2667,
      "词典": 2668,
      "有关": 2669,
      "条": 2670,
      "原文": 2671,
      "】": 2672,
      "|": 2673,
      "用尽": 2674,
      "牌子": 2675,
      "五一": 2676,
      "入手": 2677,
      "一款": 2678,
      "娱乐": 2679,
      "牌": 2680,
      "丰富": 2681,
      "MP3": 2682,
      "录音": 2683,
      "相册": 2684,
      "亲自": 2685,
      "捉": 2686,
      "火爆": 2687,
      "樱桃": 2688,
      "新浪网": 2689,
      "通": 2690,
      "新浪": 2691,
      "天堂": 2692,
      "火": 2693,
      "网": 2694,
      "小雨": 2695,
      "点儿": 2696,
      "游戏": 2697,
      "名字": 2698,
      "评论": 2699,
      "哈": 2700,
      "宫颈": 2701,
      "白斑": 2702,
      "妇科疾病": 2703,
      "子宫颈": 2704,
      "部": 2705,
      "灰白色": 2706,
      "透明": 2707,
      "斑块": 2708,
      "癌变": 2709,
      "黑色素": 2710,
      "退化": 2711,
      "死亡": 2712,
      "色素": 2713,
      "到处": 2714,
      "两侧": 2715,
      "呈现": 2716,
      "乳白色": 2717,
      "侵犯": 2718,
      "嘴唇": 2719,
      "手部": 2720,
      "手臂": 2721,
      "腿部": 2722,
      "生殖器": 2723,
      "放心": 2724,
      "奖金": 2725,
      "缴纳": 2726,
      "个人所得税": 2727,
      "哪位": 2728,
      "职务": 2729,
      "发明": 2730,
      "取得": 2731,
      "员工": 2732,
      "奖励": 2733,
      "收入": 2734,
      "劳务": 2735,
      "报酬": 2736,
      "工资": 2737,
      "所得": 2738,
      "偶然": 2739,
      "使用权": 2740,
      "这句": 2741,
      "莫名其妙": 2742,
      "诗句": 2743,
      "完整": 2744,
      "如下": 2745,
      "盆": 2746,
      "假": 2747,
      "记不清": 2748,
      "时代": 2749,
      "执着": 2750,
      "文人": 2751,
      "这首": 2752,
      "太太": 2753,
      "门外": 2754,
      "夹": 2755,
      "豆子": 2756,
      "洗脚": 2757,
      "飘": 2758,
      "块": 2759,
      "生姜": 2760,
      "银子": 2761,
      "头上": 2762,
      "插": 2763,
      "一朵": 2764,
      "香": 2765,
      "微博": 2766,
      "类似": 2767,
      "空间": 2768,
      "主页": 2769,
      "发个": 2770,
      "消息": 2771,
      "设置": 2772,
      "修改": 2773,
      "菩提": 2774,
      "虎": 2775,
      "龙": 2776,
      "暴": 2777,
      "社会主义": 2778,
      "解放": 2779,
      "生产力": 2780,
      "发展": 2781,
      "消灭": 2782,
      "剥削": 2783,
      "消除": 2784,
      "打胎": 2785,
      "上千": 2786,
      "胚胎": 2787,
      "发育": 2788,
      "就诊": 2789,
      "当地": 2790,
      "因人而异": 2791,
      "情形": 2792,
      "数字": 2793,
      "提醒": 2794,
      "涉及": 2795,
      "生育": 2796,
      "结合": 2797,
      "安全性": 2798,
      "一家": 2799,
      "有所不同": 2800,
      "专业性": 2801,
      "魔": 2802,
      "几级": 2803,
      "学": 2804,
      "等级": 2805,
      "50": 2806,
      "港口": 2807,
      "熟练": 2808,
      "被动": 2809,
      "全力": 2810,
      "前途": 2811,
      "`": 2812,
      "大虾": 2813,
      "多加": 2814,
      "气功": 2815,
      "练": 2816,
      "后面": 2817,
      "前期": 2818,
      "很差": 2819,
      "厉害": 2820,
      "地下": 2821,
      "怪": 2822,
      "魔女": 2823,
      "光环": 2824,
      "入口": 2825,
      "随机": 2826,
      "进去": 2827,
      "换个": 2828,
      "试": 2829,
      "攻防": 2830,
      "深处": 2831,
      "双倍": 2832,
      "声望": 2833,
      "第一个": 2834,
      "礼拜": 2835,
      "阿拉": 2836,
      "休息": 2837,
      "凌晨": 2838,
      "下周": 2839,
      "服务器": 2840,
      "维护": 2841,
      "页面": 2842,
      "查看": 2843,
      "参加": 2844,
      "大酒店": 2845,
      "维也纳": 2846,
      "130": 2847,
      "步行": 2848,
      "加油站": 2849,
      "站": 2850,
      "乘坐": 2851,
      "专线": 2852,
      "下车": 2853,
      "地铁": 2854,
      "号线": 2855,
      "南站": 2856,
      "1.4": 2857,
      "酒店": 2858,
      "店": 2859,
      "同意": 2860,
      "认同": 2861,
      "少数": 2862,
      "解释": 2863,
      "其一": 2864,
      "竞技": 2865,
      "象征": 2866,
      "身份": 2867,
      "区分": 2868,
      "新手": 2869,
      "小白": 2870,
      "其二": 2871,
      "热衷": 2872,
      "虚荣": 2873,
      "可耻": 2874,
      "可笑": 2875,
      "暂且": 2876,
      "谈论": 2877,
      "荣誉": 2878,
      "征战": 2879,
      "无双": 2880,
      "兄弟": 2881,
      "成果": 2882,
      "【": 2883,
      "譬如": 2884,
      "上面": 2885,
      "令人": 2886,
      "它会": 2887,
      "视": 2888,
      "以至于": 2889,
      "不配": 2890,
      "好听": 2891,
      "欠缺": 2892,
      "实战": 2893,
      "队友": 2894,
      "默契": 2895,
      "说白了": 2896,
      "心中": 2897,
      "最低": 2898,
      "战绩": 2899,
      "错": 2900,
      "成都": 2901,
      "将军": 2902,
      "升": 2903,
      "适应": 2904,
      "杀人": 2905,
      "到底": 2906,
      "素质": 2907,
      "光荣": 2908,
      "称": 2909,
      "真正": 2910,
      "还应": 2911,
      "具备": 2912,
      "众人": 2913,
      "赞同": 2914,
      "低": 2915,
      "耻辱": 2916,
      "回归": 2917,
      "自以为是": 2918,
      "者": 2919,
      "更加": 2920,
      "小弟": 2921,
      "见解": 2922,
      "无非": 2923,
      "一句": 2924,
      "话": 2925,
      "本身": 2926,
      "善恶": 2927,
      "硬": 2928,
      "家教": 2929,
      "人为": 2930,
      "越来越少": 2931,
      "局势": 2932,
      "单单": 2933,
      "站台": 2934,
      "标题": 2935,
      "自杀": 2936,
      "这门": 2937,
      "聚集": 2938,
      "再说": 2939,
      "这类": 2940,
      "价钱": 2941,
      "老百姓": 2942,
      "意见": 2943,
      "只能": 2944,
      "站点": 2945,
      "民众": 2946,
      "反映": 2947,
      "咯": 2948,
      "装": 2949,
      "美观": 2950,
      "好看": 2951,
      "前端": 2952,
      "申购": 2953,
      "代码": 2954,
      "端": 2955,
      "费": 2956,
      "费率": 2957,
      "固定": 2958,
      "申": 2959,
      "持有": 2960,
      "越长": 2961,
      "越低": 2962,
      "联赛": 2963,
      "足彩": 2964,
      "延期": 2965,
      "比赛": 2966,
      "310": 2967,
      "北京": 2968,
      "日": 2969,
      "上午": 2970,
      "发布": 2971,
      "通知": 2972,
      "期": 2973,
      "计算": 2974,
      "字": 2975,
      "〔": 2976,
      "〕": 2977,
      "120": 2978,
      "[": 2979,
      "]": 2980,
      "事宜": 2981,
      "各省": 2982,
      "自治区": 2983,
      "直辖市": 2984,
      "确认": 2985,
      "原定": 2986,
      "致": 2987,
      "场次": 2988,
      "胜负": 2989,
      "14": 2990,
      "任选": 2991,
      "第": 2992,
      "全场": 2993,
      "进球": 2994,
      "发行": 2995,
      "管理": 2996,
      "规定": 2997,
      "决定": 2998,
      "上述": 2999,
      "比赛结果": 3000,
      "为准": 3001,
      "均": 3002,
      "信息": 3003,
      "仍": 3004,
      "同期": 3005,
      "十二月": 3006,
      "一日": 3007,
      "今晚": 3008,
      "哪能": 3009,
      "看到": 3010,
      "查询": 3011,
      "剩余": 3012,
      "点数": 3013,
      "第一种": 3014,
      "看见": 3015,
      "第二种": 3016,
      "见": 3017,
      "下图": 3018,
      "礼物": 3019,
      "玩具": 3020,
      "43": 3021,
      "41": 3022,
      "115": 3023,
      "５": 3024,
      "妖": 3025,
      "加点": 3026,
      "刀": 3027,
      "不敢": 3028,
      "级别": 3029,
      "智": 3030,
      "据说": 3031,
      "无敌": 3032,
      "弓": 3033,
      "攻击": 3034,
      "全部": 3035,
      "入味": 3036,
      "用料": 3037,
      "牛肉": 3038,
      "末": 3039,
      "豆瓣酱": 3040,
      "酱油": 3041,
      "豆": 3042,
      "葱": 3043,
      "姜": 3044,
      "蒜": 3045,
      "共": 3046,
      "少许": 3047,
      "克": 3048,
      "75": 3049,
      "切成": 3050,
      "l": 3051,
      "焯": 3052,
      "炒锅": 3053,
      "上火": 3054,
      "烧热": 3055,
      "松散": 3056,
      "高汤": 3057,
      "移至": 3058,
      "出锅": 3059,
      "咸": 3060,
      "鲜": 3061,
      "风味": 3062,
      "相传": 3063,
      "清朝": 3064,
      "同治": 3065,
      "年间": 3066,
      "桥": 3067,
      "店主": 3068,
      "外号": 3069,
      "陈": 3070,
      "烹制": 3071,
      "喜爱": 3072,
      "名声": 3073,
      "独到": 3074,
      "高三": 3075,
      "数学题": 3076,
      "急求": 3077,
      "在线": 3078,
      "据": 3079,
      "甲": 3080,
      "乙": 3081,
      "磁盘": 3082,
      "病毒感染": 3083,
      "量": 3084,
      "y": 3085,
      "单位": 3086,
      "比特": 3087,
      "数": 3088,
      "秒": 3089,
      "函数": 3090,
      "e": 3091,
      "显然": 3092,
      ">": 3093,
      "增长率": 3094,
      "提炼": 3095,
      "不等式": 3096,
      "无视": 3097,
      "护卫": 3098,
      "记得": 3099,
      "上次": 3100,
      "pk": 3101,
      "宠": 3102,
      "h": 3103,
      "打到": 3104,
      "记错": 3105,
      "详解": 3106,
      "↓": 3107,
      "前排": 3108,
      "后排": 3109,
      "受伤": 3110,
      "发动": 3111,
      "互相": 3112,
      "角色": 3113,
      "挂": 3114,
      "反击": 3115,
      "帮派": 3116,
      "怎么弄": 3117,
      "〖": 3118,
      "功德": 3119,
      "〗": 3120,
      "累积": 3121,
      "每周": 3122,
      "选定": 3123,
      "功臣": 3124,
      "帐户": 3125,
      "先生": 3126,
      "各种": 3127,
      "价值": 3128,
      "道具": 3129,
      "高级": 3130,
      "套餐": 3131,
      "成功率": 3132,
      "兑换": 3133,
      "失败": 3134,
      "活力": 3135,
      "补偿": 3136,
      "差点": 3137,
      "转运": 3138,
      "好运": 3139,
      "手写": 3140,
      "讲义": 3141,
      "购买": 3142,
      "相应": 3143,
      "家人": 3144,
      "出事": 3145,
      "脑子": 3146,
      "胡思乱想": 3147,
      "总要": 3148,
      "忧虑": 3149,
      "悲观": 3150,
      "空闲": 3151,
      "偶尔": 3152,
      "听听": 3153,
      "轻松": 3154,
      "音乐": 3155,
      "记住": 3156,
      "百分之": 3157,
      "90": 3158,
      "档案": 3159,
      "人才": 3160,
      "部门": 3161,
      "盖章": 3162,
      "办理": 3163,
      "帮帮我": 3164,
      "街道": 3165,
      "计划生育": 3166,
      "办公室": 3167,
      "实践": 3168,
      "之内": 3169,
      "办": 3170,
      "反正": 3171,
      "有空": 3172,
      "结婚证": 3173,
      "户口本": 3174,
      "所在地": 3175,
      "居委会": 3176,
      "表": 3177,
      "盖": 3178,
      "章": 3179,
      "老公": 3180,
      "户口": 3181,
      "一张": 3182,
      "听课": 3183,
      "45": 3184,
      "理论": 3185,
      "代办": 3186,
      "社区": 3187,
      "母子": 3188,
      "元": 3189,
      "检查一下": 3190,
      "保健": 3191,
      "粉红色": 3192,
      "本本": 3193,
      "产检": 3194,
      "出生": 3195,
      "带回": 3196,
      "送": 3197,
      "分": 3198,
      "埃弗顿": 3199,
      "富勒姆": 3200,
      "维拉": 3201,
      "斯图加": 3202,
      "堡": 3203,
      "拉齐奥": 3204,
      "乌鸡": 3205,
      "猜": 3206,
      "换": 3207,
      "公积金": 3208,
      "保险": 3209,
      "半年前": 3210,
      "合同": 3211,
      "到期": 3212,
      "没法": 3213,
      "高人": 3214,
      "打电话": 3215,
      "原": 3216,
      "城市": 3217,
      "归还": 3218,
      "国家": 3219,
      "不得": 3220,
      "社会保险": 3221,
      "证件": 3222,
      "协商": 3223,
      "劳动": 3224,
      "仲裁": 3225,
      "申请": 3226,
      "离职": 3227,
      "本": 3228,
      "打出": 3229,
      "养老保险": 3230,
      "转移": 3231,
      "允许": 3232,
      "帐号": 3233,
      "政策": 3234,
      "自动": 3235,
      "合并": 3236,
      "咨询": 3237,
      "大大": 3238,
      "WINDOWS": 3239,
      "委托": 3240,
      "交易": 3241,
      "窗口": 3242,
      "跳出": 3243,
      "输": 3244,
      "插件": 3245,
      "关闭": 3246,
      "IE": 3247,
      "拦截": 3248,
      "说好": 3249,
      "进不去": 3250,
      "形容": 3251,
      "气质": 3252,
      "世界": 3253,
      "何种": 3254,
      "女人": 3255,
      "词汇": 3256,
      "丰富多彩": 3257,
      "温柔": 3258,
      "漂亮": 3259,
      "可爱": 3260,
      "清纯": 3261,
      "成熟": 3262,
      "优雅": 3263,
      "浪漫": 3264,
      "热情": 3265,
      "魅力": 3266,
      "内涵": 3267,
      "什么样": 3268,
      "能干": 3269,
      "古典": 3270,
      "美人": 3271,
      "狂热": 3272,
      "抛开": 3273,
      "容貌": 3274,
      "不说": 3275,
      "单": 3276,
      "欣赏": 3277,
      "茉莉": 3278,
      "花儿": 3279,
      "依旧": 3280,
      "绽放": 3281,
      "绝": 3282,
      "美": 3283,
      "界定": 3284,
      "素养": 3285,
      "审美": 3286,
      "意识": 3287,
      "领悟": 3288,
      "诠释": 3289,
      "固然": 3290,
      "引人注目": 3291,
      "令人难忘": 3292,
      "具有": 3293,
      "善良": 3294,
      "作为": 3295,
      "潇洒": 3296,
      "理由": 3297,
      "男人": 3298,
      "缺少": 3299,
      "资质": 3300,
      "低头": 3301,
      "不胜": 3302,
      "莲花": 3303,
      "道": 3304,
      "诗经": 3305,
      "美好": 3306,
      "外型": 3307,
      "温和": 3308,
      "加上": 3309,
      "或许": 3310,
      "众多": 3311,
      "男性": 3312,
      "心目": 3313,
      "一首": 3314,
      "钟": 3315,
      "十二": 3316,
      "声": 3317,
      "明亮": 3318,
      "幻影": 3319,
      "闪亮": 3320,
      "显得": 3321,
      "可怜": 3322,
      "去年": 3323,
      "雨": 3324,
      "那样": 3325,
      "冷": 3326,
      "灰色": 3327,
      "头发": 3328,
      "草": 3329,
      "蓝": 3330,
      "颤抖": 3331,
      "心头": 3332,
      "声音": 3333,
      "想象": 3334,
      "厚": 3335,
      "布": 3336,
      "惭愧": 3337,
      "粗糙": 3338,
      "很小": 3339,
      "快乐": 3340,
      "笑": 3341,
      "心": 3342,
      "由此": 3343,
      "侧面": 3344,
      "看出": 3345,
      "美貌": 3346,
      "征服": 3347,
      "眼睛": 3348,
      "心灵": 3349,
      "不知不觉": 3350,
      "足以": 3351,
      "融化": 3352,
      "美德": 3353,
      "一见钟情": 3354,
      "挑剔": 3355,
      "盯": 3356,
      "心里": 3357,
      "大为": 3358,
      "充满": 3359,
      "憧憬": 3360,
      "感性": 3361,
      "理性": 3362,
      "中来": 3363,
      "明白": 3364,
      "季节": 3365,
      "变迁": 3366,
      "轮回": 3367,
      "将会": 3368,
      "人间": 3369,
      "带来": 3370,
      "深情": 3371,
      "温馨": 3372,
      "和谐": 3373,
      "忘": 3374,
      "诱人": 3375,
      "帧": 3376,
      "难以": 3377,
      "优点": 3378,
      "特长": 3379,
      "完美": 3380,
      "丧失": 3381,
      "人生": 3382,
      "长久": 3383,
      "伙伴": 3384,
      "跟着": 3385,
      "岁月": 3386,
      "老人": 3387,
      "绝不会": 3388,
      "旁人": 3389,
      "整形": 3390,
      "韵味": 3391,
      "实质": 3392,
      "如此": 3393,
      "不尽": 3394,
      "文字描述": 3395,
      "人人": 3396,
      "面前": 3397,
      "说话": 3398,
      "包含": 3399,
      "深刻": 3400,
      "生硬": 3401,
      "表演": 3402,
      "本体": 3403,
      "散发": 3404,
      "可不是": 3405,
      "真假": 3406,
      "之分": 3407,
      "故": 3408,
      "骨子里": 3409,
      "本能": 3410,
      "相伴": 3411,
      "终结": 3412,
      "听到": 3413,
      "竖": 3414,
      "几千年": 3415,
      "文化": 3416,
      "传统": 3417,
      "很多很多": 3418,
      "有意思": 3419,
      "悲哀": 3420,
      "上班": 3421,
      "几个": 3422,
      "结婚": 3423,
      "脾气": 3424,
      "坏": 3425,
      "逼": 3426,
      "她们": 3427,
      "动辄": 3428,
      "婚前": 3429,
      "不顾": 3430,
      "形象": 3431,
      "娶": 3432,
      "没多久": 3433,
      "便": 3434,
      "折磨": 3435,
      "小事": 3436,
      "打架": 3437,
      "发起": 3438,
      "想到": 3439,
      "字眼": 3440,
      "独有": 3441,
      "思考": 3442,
      "语调": 3443,
      "更具": 3444,
      "感染力": 3445,
      "马克思": 3446,
      "最大": 3447,
      "如今": 3448,
      "歧视": 3449,
      "地位": 3450,
      "遗憾": 3451,
      "当今": 3452,
      "现代": 3453,
      "社会": 3454,
      "不得不": 3455,
      "承认": 3456,
      "谈到": 3457,
      "令": 3458,
      "男士": 3459,
      "心痛": 3460,
      "无奈": 3461,
      "应当": 3462,
      "当今社会": 3463,
      "追求": 3464,
      "人格": 3465,
      "一面": 3466,
      "何况": 3467,
      "正如": 3468,
      "之间": 3469,
      "春风": 3470,
      "忧愁": 3471,
      "理解": 3472,
      "关怀": 3473,
      "无疑": 3474,
      "爱情": 3475,
      "巧克力": 3476,
      "世上": 3477,
      "男子": 3478,
      "野": 3479,
      "泼": 3480,
      "粗": 3481,
      "接触": 3482,
      "意味着": 3483,
      "最能": 3484,
      "打动": 3485,
      "尽管": 3486,
      "不同于": 3487,
      "平静": 3488,
      "湖泊": 3489,
      "是从": 3490,
      "清风": 3491,
      "雪花": 3492,
      "冬季": 3493,
      "一场": 3494,
      "舒展": 3495,
      "春天": 3496,
      "纤细": 3497,
      "手": 3498,
      "轻轻": 3499,
      "抚摸": 3500,
      "愈合": 3501,
      "青春": 3502,
      "醒来": 3503,
      "痛苦": 3504,
      "甜蜜": 3505,
      "诗意": 3506,
      "缓缓": 3507,
      "轻轻地": 3508,
      "身旁": 3509,
      "扩展": 3510,
      "宽松": 3511,
      "归属": 3512,
      "特有": 3513,
      "正是": 3514,
      "美学": 3515,
      "赋予": 3516,
      "最佳": 3517,
      "韵律": 3518,
      "独特": 3519,
      "加之": 3520,
      "性情": 3521,
      "置身于": 3522,
      "统一": 3523,
      "鲜明": 3524,
      "对比": 3525,
      "构成": 3526,
      "一道": 3527,
      "风景": 3528,
      "使人": 3529,
      "品味": 3530,
      "着迷": 3531,
      "微妙": 3532,
      "美的": 3533,
      "性感": 3534,
      "展现": 3535,
      "爱慕": 3536,
      "优美": 3537,
      "体态": 3538,
      "流逝": 3539,
      "总会": 3540,
      "消瘦": 3541,
      "抽象": 3542,
      "美感": 3543,
      "永恒": 3544,
      "北方": 3545,
      "绝世": 3546,
      "城": 3547,
      "国": 3548,
      "宁": 3549,
      "面": 3550,
      "齿": 3551,
      "闲": 3552,
      "落叶": 3553,
      "何": 3554,
      "明珠": 3555,
      "珊瑚": 3556,
      "远": 3557,
      "光彩": 3558,
      "答案": 3559,
      "管理员": 3560,
      "不见": 3561,
      "html": 3562,
      "员": 3563,
      "爱问": 3564,
      "留": 3565,
      "符合": 3566,
      "规则": 3567,
      "删除": 3568,
      "阅读": 3569,
      "网友": 3570,
      "互助": 3571,
      "问答": 3572,
      "平台": 3573,
      "参与": 3574,
      "分享": 3575,
      "利益": 3576,
      "良好": 3577,
      "法规": 3578,
      "无关": 3579,
      "发言": 3580,
      "强制": 3581,
      "提交": 3582,
      "扣除": 3583,
      "处罚": 3584,
      "停用": 3585,
      "账号": 3586,
      "无论是": 3587,
      "发表": 3588,
      "承担": 3589,
      "谨慎": 3590,
      "共享": 3591,
      "网络": 3592,
      "编辑": 3593,
      "服务": 3594,
      "移除": 3595,
      "举报": 3596,
      "权利": 3597,
      "关键点": 3598,
      "纯": 3599,
      "论坛": 3600,
      "性质": 3601,
      "例": 3602,
      "嘻嘻": 3603,
      "笼统": 3604,
      "以至": 3605,
      "回答者": 3606,
      "无法回答": 3607,
      "外语": 3608,
      "说明": 3609,
      "纯粹": 3610,
      "网络游戏": 3611,
      "带有": 3612,
      "调侃": 3613,
      "QQ号": 3614,
      "联系方式": 3615,
      "提问": 3616,
      "聊聊天": 3617,
      "找人": 3618,
      "短时间": 3619,
      "句型": 3620,
      "人口": 3621,
      "日本": 3622,
      "韩国": 3623,
      "实际意义": 3624,
      "路过": 3625,
      "顶": 3626,
      "网上": 3627,
      "搜": 3628,
      "不发": 3629,
      "种族": 3630,
      "肤色": 3631,
      "性取向": 3632,
      "宗教": 3633,
      "民族": 3634,
      "地域": 3635,
      "残疾": 3636,
      "状况": 3637,
      "回复": 3638,
      "每位": 3639,
      "使用者": 3640,
      "警告": 3641,
      "不便": 3642,
      "敬请": 3643,
      "见谅": 3644,
      "更新": 3645,
      "公告": 3646,
      "禁止": 3647,
      "下列": 3648,
      "违反": 3649,
      "现行": 3650,
      "法律法规": 3651,
      "仇恨": 3652,
      "宣扬": 3653,
      "邪教": 3654,
      "色情": 3655,
      "暴力": 3656,
      "犯罪": 3657,
      "官员": 3658,
      "侮辱": 3659,
      "他人": 3660,
      "伤害": 3661,
      "侵害": 3662,
      "合法权益": 3663,
      "法律": 3664,
      "行政": 3665,
      "宣传": 3666,
      "广告": 3667,
      "浏览": 3668,
      "格式": 3669,
      "栏目": 3670,
      "主题": 3671,
      "其它": 3672,
      "当前": 3673,
      "作": 3674,
      "禁用": 3675,
      "封号": 3676,
      "重复": 3677,
      "秩序": 3678,
      "非常明显": 3679,
      "转载": 3680,
      "版权": 3681,
      "非法": 3682,
      "攻击性": 3683,
      "言论": 3684,
      "冒充": 3685,
      "工作人员": 3686,
      "意义": 3687,
      "昵称": 3688,
      "违法行为": 3689,
      "诉讼": 3690,
      "协助": 3691,
      "主管": 3692,
      "不问": 3693,
      "田": 3694,
      "╬": 3695,
      "猫": 3696,
      "游记": 3697,
      "久": 3698,
      "悟": 3699,
      "统计": 3700,
      "最快": 3701,
      "太久": 3702,
      "优先": 3703,
      "内存": 3704,
      "分配": 3705,
      "一部分": 3706,
      "流畅": 3707,
      "管理器": 3708,
      "进程": 3709,
      "对应": 3710,
      "程序": 3711,
      "优先级": 3712,
      "搞笑": 3713,
      "妈妈": 3714,
      "小猪": 3715,
      "也好": 3716,
      "小狗": 3717,
      "猪": 3718,
      "外人": 3719,
      "零": 3720,
      "鱼": 3721,
      "武士": 3722,
      "崇拜": 3723,
      "歌迷": 3724,
      "偶": 3725,
      "偶像": 3726,
      "开办": 3727,
      "购物": 3728,
      "手续": 3729,
      "注册": 3730,
      "08": 3731,
      "诛": 3732,
      "仙": 3733,
      "新区": 3734,
      "我想": 3735,
      "问下": 3736,
      "坐骑": 3737,
      "慢": 3738,
      "直线": 3739,
      "划算": 3740,
      "空中": 3741,
      "新出": 3742,
      "属性": 3743,
      "加成": 3744,
      "哺乳期": 3745,
      "雪山": 3746,
      "金": 3747,
      "止痛": 3748,
      "剂": 3749,
      "抱": 3750,
      "手腕": 3751,
      "痛": 3752,
      "喂奶": 3753,
      "关节": 3754,
      "错位": 3755,
      "很痛": 3756,
      "软组织": 3757,
      "扭": 3758,
      "类": 3759,
      "药品": 3760,
      "中药": 3761,
      "川芎": 3762,
      "桃仁": 3763,
      "红花": 3764,
      "麝香": 3765,
      "病症": 3766,
      "活血": 3767,
      "消肿": 3768,
      "风湿性关节炎": 3769,
      "痛风": 3770,
      "骨质增生": 3771,
      "肢体": 3772,
      "肿胀": 3773,
      "神经性": 3774,
      "头痛": 3775,
      "风湿": 3776,
      "关节炎": 3777,
      "小宝宝": 3778,
      "孕妇": 3779,
      "用法": 3780,
      "挤出": 3781,
      "药剂": 3782,
      "涂": 3783,
      "患处": 3784,
      "早日康复": 3785,
      "祖": 3786,
      "硬币": 3787,
      "交了": 3788,
      "小岛": 3789,
      "宝石": 3790,
      "PS": 3791,
      "摧毁": 3792,
      "偷袭": 3793,
      "新版": 3794,
      "指定": 3795,
      "私密": 3796,
      "私信": 3797,
      "大自然": 3798,
      "照": 3799,
      "提前": 3800,
      "多长时间": 3801,
      "预约": 3802,
      "偏": 3803,
      "偏好": 3804,
      "赶上": 3805,
      "衣服": 3806,
      "以内": 3807,
      "分店": 3808,
      "情绪": 3809,
      "不定": 3810,
      "卫生": 3811,
      "角度": 3812,
      "讲": 3813,
      "穿": 3814,
      "查找": 3815,
      "码": 3816,
      "QQ": 3817,
      "临时": 3818,
      "会话": 3819,
      "头像": 3820,
      "彩色": 3821,
      "隐身": 3822,
      "好友": 3823,
      "而已": 3824,
      "点开": 3825,
      "新建": 3826,
      "联系人": 3827,
      "TM": 3828,
      "输入": 3829,
      "填": 3830,
      "空白处": 3831,
      "右击": 3832,
      "简洁": 3833,
      "列表": 3834,
      "要选": 3835,
      "企鹅": 3836,
      "单击": 3837,
      "脱发": 3838,
      "能过": 3839,
      "如何治": 3840,
      "多数": 3841,
      "锁定": 3842,
      "头皮": 3843,
      "萎缩": 3844,
      "中医": 3845,
      "对策": 3846,
      "肾": 3847,
      "下手": 3848,
      "会长": 3849,
      "会出": 3850,
      "第二季": 3851,
      "漫画": 3852,
      "快要": 3853,
      "完结": 3854,
      "动漫": 3855,
      "播出": 3856,
      "率": 3857,
      "网页": 3858,
      "精通": 3859,
      "运用": 3860,
      "稍稍": 3861,
      "重装": 3862,
      "更改": 3863,
      "涂料": 3864,
      "反馈": 3865,
      "机体": 3866,
      "染色": 3867,
      "错误": 3868,
      "手动": 3869,
      "客户端": 3870,
      "须": 3871,
      "计算机": 3872,
      "文件夹": 3873,
      "验证码": 3874,
      "多种": 3875,
      "比如说": 3876,
      "途中": 3877,
      "代理": 3878,
      "局域网": 3879,
      "单纯": 3880,
      "不管怎么": 3881,
      "绝对": 3882,
      "传奇": 3883,
      "Ｇ": 3884,
      "变为": 3885,
      "开通": 3886,
      "忍者": 3887,
      "想开": 3888,
      "Ｐ": 3889,
      "Ｋ": 3890,
      "PK": 3891,
      "防御": 3892,
      "随": 3893,
      "暗杀": 3894,
      "生命力": 3895,
      "忍": 3896,
      "奇迹": 3897,
      "仗": 3898,
      "不算": 3899,
      "不加": 3900,
      "抗": 3901,
      "石化": 3902,
      "洁净": 3903,
      "LZ": 3904,
      "列举": 3905,
      "超强": 3906,
      "再就是": 3907,
      "因果": 3908,
      "练级": 3909,
      "必备": 3910,
      "配合": 3911,
      "舞者": 3912,
      "男友": 3913,
      "相处": 3914,
      "半年": 3915,
      "种种原因": 3916,
      "别扭": 3917,
      "折腾": 3918,
      "同事": 3919,
      "感情": 3920,
      "基础": 3921,
      "动不动": 3922,
      "动摇": 3923,
      "生气": 3924,
      "考察": 3925,
      "期限": 3926,
      "哥哥": 3927,
      "姐姐": 3928,
      "提出": 3929,
      "他会": 3930,
      "补充": 3931,
      "仙剑": 3932,
      "RMB": 3933,
      "刚才": 3934,
      "钱包": 3935,
      "多元": 3936,
      "新车": 3937,
      "转向": 3938,
      "好不好": 3939,
      "充": 3940,
      "72": 3941,
      "1200": 3942,
      "总共": 3943,
      "144": 3944,
      "徽章": 3945,
      "早上": 3946,
      "爸妈": 3947,
      "爷爷奶奶": 3948,
      "买不到": 3949,
      "冥王星": 3950,
      "福": 3951,
      "科斯": 3952,
      "顶级": 3953,
      "不怕": 3954,
      "马丁": 3955,
      "葡萄": 3956,
      "花": 3957,
      "既然": 3958,
      "买好": 3959,
      "刷": 3960,
      "记录": 3961,
      "掉": 3962,
      "PD": 3963,
      "创造": 3964,
      "官方": 3965,
      "父": 3966,
      "回来": 3967,
      "炒": 3968,
      "销量": 3969,
      "杀毒软件": 3970,
      "瑞星": 3971,
      "相比": 3972,
      "麦": 3973,
      "复杂": 3974,
      "凑合": 3975,
      "信任": 3976,
      "卡巴": 3977,
      "杀毒": 3978,
      "安全卫士": 3979,
      "自带": 3980,
      "首要": 3981,
      "干嘛": 3982,
      "毒": 3983,
      "强调": 3984,
      "只会": 3985,
      "没用": 3986,
      "f": 3987,
      "绝对值": 3988,
      "导": 3989,
      "如图": 3990,
      "嗯": 3991,
      "几何": 3992,
      "直观": 3993,
      "角度看": 3994,
      "图像": 3995,
      "沿": 3996,
      "翻": 3997,
      "导数": 3998,
      "表明": 3999,
      "一侧": 4000,
      "另一侧": 4001,
      "不变": 4002,
      "'": 4003,
      "猫咪": 4004,
      "谈谈": 4005,
      "cat": 4006,
      "兔子": 4007,
      "and": 4008,
      "携带": 4009,
      "幼虫": 4010,
      "梳理": 4011,
      "时会": 4012,
      "传染病": 4013,
      "菌": 4014,
      "肚子": 4015,
      "拉稀": 4016,
      "点点": 4017,
      "成虫": 4018,
      "小猫": 4019,
      "贫血": 4020,
      "咬伤": 4021,
      "过敏": 4022,
      "皮肤病": 4023,
      "痒": 4024,
      "疙瘩": 4025,
      "往往": 4026,
      "红肿": 4027,
      "咬": 4028,
      "那时": 4029,
      "女儿": 4030,
      "培养": 4031,
      "一粒": 4032,
      "棕": 4033,
      "黑色": 4034,
      "细细": 4035,
      "打着": 4036,
      "细": 4037,
      "屎": 4038,
      "脚踝": 4039,
      "上用": 4040,
      "梳子": 4041,
      "梳": 4042,
      "消化": 4043,
      "逗号": 4044,
      "水里": 4045,
      "上会": 4046,
      "血色": 4047,
      "棕色": 4048,
      "生命周期": 4049,
      "住": 4050,
      "宿主": 4051,
      "吸血": 4052,
      "产卵": 4053,
      "卵": 4054,
      "去过": 4055,
      "地毯": 4056,
      "到来": 4057,
      "二氧化碳": 4058,
      "震动": 4059,
      "两年": 4060,
      "天内": 4061,
      "暖气": 4062,
      "杀死": 4063,
      "杀灭": 4064,
      "市场": 4065,
      "有效期": 4066,
      "各不相同": 4067,
      "立刻": 4068,
      "吸尘器": 4069,
      "袋子": 4070,
      "扔掉": 4071,
      "大大减少": 4072,
      "房子": 4073,
      "长成": 4074,
      "污染": 4075,
      "床": 4076,
      "长效": 4077,
      "房屋": 4078,
      "一步": 4079,
      "加以": 4080,
      "缝隙": 4081,
      "墙角": 4082,
      "吸": 4083,
      "遵循": 4084,
      "出没": 4085,
      "太阳": 4086,
      "晒": 4087,
      "宠物": 4088,
      "外出": 4089,
      "选用": 4090,
      "断断续续": 4091,
      "坚持": 4092,
      "周围": 4093,
      "更换": 4094,
      "有限": 4095,
      "脖子": 4096,
      "国内": 4097,
      "篇文章": 4098,
      "提到": 4099,
      "酯": 4100,
      "拟": 4101,
      "有机": 4102,
      "阿": 4103,
      "不宜": 4104,
      "舔": 4105,
      "圈": 4106,
      "厌食": 4107,
      "洗掉": 4108,
      "无效": 4109,
      "国产": 4110,
      "机理": 4111,
      "迅速": 4112,
      "渗透到": 4113,
      "皮下": 4114,
      "药效": 4115,
      "持续时间": 4116,
      "严格": 4117,
      "超出": 4118,
      "说明书": 4119,
      "皮肤过敏": 4120,
      "贵": 4121,
      "国外": 4122,
      "无害": 4123,
      "孵化": 4124,
      "喂": 4125,
      "六个月": 4126,
      "注射": 4127,
      "激素": 4128,
      "2000": 4129,
      "by": 4130,
      "达": 4131,
      "拿来": 4132,
      "做成": 4133,
      "有毒": 4134,
      "化学物质": 4135,
      "麻醉": 4136,
      "正在": 4137,
      "不让": 4138,
      "传染": 4139,
      "培训班": 4140,
      "工程师": 4141,
      "首页": 4142,
      "课程": 4143,
      "师资": 4144,
      "校园": 4145,
      "授课": 4146,
      "报名": 4147,
      "热线": 4148,
      "010": 4149,
      "机构": 4150,
      "北京市": 4151,
      "分校": 4152,
      "招生": 4153,
      "}": 4154,
      "需": 4155,
      "原价": 4156,
      "报价": 4157,
      "教育": 4158,
      "学院": 4159,
      "直属": 4160,
      "全民": 4161,
      "事业单位": 4162,
      "位于": 4163,
      "成立": 4164,
      "规模": 4165,
      "教学质量": 4166,
      "合作": 4167,
      "开设": 4168,
      "中小学": 4169,
      "唯一": 4170,
      "设计": 4171,
      "动画": 4172,
      "艺术": 4173,
      "澳大利亚": 4174,
      "研究院": 4175,
      "多媒体": 4176,
      "案例": 4177,
      "需求": 4178,
      "域": 4179,
      "DC": 4180,
      "树": 4181,
      "森林": 4182,
      "解决方案": 4183,
      "结构": 4184,
      "邮件地址": 4185,
      "传递": 4186,
      "邮件": 4187,
      "协议": 4188,
      "邮箱": 4189,
      "特性": 4190,
      "垃圾邮件": 4191,
      "防范": 4192,
      "构建": 4193,
      "分布式": 4194,
      "办公": 4195,
      "VPN": 4196,
      "路由": 4197,
      "Internet": 4198,
      "线路": 4199,
      "5000": 4200,
      "价": 4201,
      "备": 4202,
      "注": 4203,
      "限": 4204,
      "点至": 4205,
      "累计": 4206,
      "小说": 4207,
      "傻": 4208,
      "桌面": 4209,
      "呃": 4210,
      "资料": 4211,
      "链接": 4212,
      "页": 4213,
      "稍微": 4214,
      "盗版": 4215,
      "申报": 4216,
      "抵": 4217,
      "本月": 4218,
      "减去": 4219,
      "抵扣": 4220,
      "扣": 4221,
      "税款": 4222,
      "合计": 4223,
      "税收": 4224,
      "入": 4225,
      "我要": 4226,
      "税": 4227,
      "增值税": 4228,
      "附加": 4229,
      "1982": 4230,
      "22": 4231,
      "星座": 4232,
      "阴历": 4233,
      "巨蟹座": 4234,
      "泰": 4235,
      "韩": 4236,
      "正品": 4237,
      "护肤品": 4238,
      "代购": 4239,
      "不少": 4240,
      "顺": 4241,
      "泰国": 4242,
      "缓慢": 4243,
      "黄连": 4244,
      "解毒": 4245,
      "生病": 4246,
      "辣椒": 4247,
      "抽烟": 4248,
      "清热解毒": 4249,
      "蔬菜": 4250,
      "绿茶": 4251,
      "每年": 4252,
      "快到": 4253,
      "预防": 4254,
      "热": 4255,
      "中成药": 4256,
      "地黄丸": 4257,
      "调理": 4258,
      "流鼻血": 4259,
      "烧": 4260,
      "避免": 4261,
      "频繁": 4262,
      "查": 4263,
      "血常规": 4264,
      "多喝水": 4265,
      "相关性": 4266,
      "Ⅱ": 4267,
      "持股": 4268,
      "最小": 4269,
      "风格": 4270,
      "投": 4271,
      "阿尔法": 4272,
      "优势": 4273,
      "大盘": 4274,
      "成长": 4275,
      "组合": 4276,
      "够": 4277,
      "几只": 4278,
      "业绩": 4279,
      "银色": 4280,
      "黎明": 4281,
      "亡灵": 4282,
      "怪物": 4283,
      "换取": 4284,
      "TL": 4285,
      "ST": 4286,
      "BOSS": 4287,
      "提高": 4288,
      "瘟疫": 4289,
      "教堂": 4290,
      "符文": 4291,
      "剪": 4292,
      "短发": 4293,
      "发质": 4294,
      "软": 4295,
      "发型": 4296,
      "图片": 4297,
      "完毕": 4298,
      "Ｉ": 4299,
      "Ｅ": 4300,
      "双击": 4301,
      "大区": 4302,
      "登陆": 4303,
      "物理": 4304,
      "加速度": 4305,
      "射": 4306,
      "子弹": 4307,
      "成正比": 4308,
      "最高点": 4309,
      "落": 4310,
      "最大值": 4311,
      "定律": 4312,
      "m": 4313,
      "此时": 4314,
      "G": 4315,
      "13": 4316,
      "大城市": 4317,
      "生日礼物": 4318,
      "mp3": 4319,
      "一双": 4320,
      "乔丹": 4321,
      "运动鞋": 4322,
      "补丁": 4323,
      "版本": 4324,
      "底": 4325,
      "那位": 4326,
      "老大": 4327,
      "解说": 4328,
      "不行": 4329,
      "算命": 4330,
      "命": 4331,
      "恐惧": 4332,
      "楼上": 4333,
      "好事": 4334,
      "最起码": 4335,
      "佛": 4336,
      "皇帝": 4337,
      "武则天": 4338,
      "虔诚": 4339,
      "佛教徒": 4340,
      "某种意义": 4341,
      "法": 4342,
      "遭遇": 4343,
      "今": 4344,
      "如来": 4345,
      "真实": 4346,
      "义": 4347,
      "前要": 4348,
      "念": 4349,
      "信仰": 4350,
      "长寿": 4351,
      "金刚": 4352,
      "身": 4353,
      "坚固": 4354,
      "力": 4355,
      "究竟": 4356,
      "众生": 4357,
      "出自": 4358,
      "品质": 4359,
      "换句话说": 4360,
      "聪明": 4361,
      "说到底": 4362,
      "带给": 4363,
      "偷": 4364,
      "推开": 4365,
      "佛教": 4366,
      "朝": 4367,
      "全新": 4368,
      "更有意义": 4369,
      "碰巧": 4370,
      "几句": 4371,
      "缘分": 4372,
      "网址": 4373,
      "愿": 4374,
      "阿弥陀佛": 4375,
      "电子商务": 4376,
      "买点": 4377,
      "方便": 4378,
      "开放": 4379,
      "58": 4380,
      "银行卡": 4381,
      "信誉": 4382,
      "出过": 4383,
      "值班": 4384,
      "投诉": 4385,
      "即可": 4386,
      "腰疼": 4387,
      "腰椎": 4388,
      "尿常规": 4389,
      "进不了": 4390,
      "文件": 4391,
      "退出": 4392,
      "界面": 4393,
      "告知": 4394,
      "稳定": 4395,
      "路径": 4396,
      "windows": 4397,
      "残留": 4398,
      "添加": 4399,
      "exe": 4400,
      "再次": 4401,
      "后台": 4402,
      "update": 4403,
      "del": 4404,
      "选项": 4405,
      "250": 4406,
      "150": 4407,
      "芹菜": 4408,
      "干辣椒": 4409,
      "豆瓣": 4410,
      "味精": 4411,
      "姜片": 4412,
      "清汤": 4413,
      "制作方法": 4414,
      "刺": 4415,
      "薄片": 4416,
      "装入": 4417,
      "碗": 4418,
      "料酒": 4419,
      "拌匀": 4420,
      "6.5": 4421,
      "花椒": 4422,
      "炸": 4423,
      "出色": 4424,
      "捞出": 4425,
      "剁": 4426,
      "锅内": 4427,
      "原油": 4428,
      "装盘": 4429,
      "汤汁": 4430,
      "粘稠": 4431,
      "稍": 4432,
      "渣": 4433,
      "白菜": 4434,
      "锅中": 4435,
      "不开": 4436,
      "肉片": 4437,
      "筷子": 4438,
      "装配": 4439,
      "料": 4440,
      "盘": 4441,
      "撒上": 4442,
      "随即": 4443,
      "浓厚": 4444,
      "麻辣": 4445,
      "香味": 4446,
      "道菜": 4447,
      "技术性": 4448,
      "难度": 4449,
      "辅料": 4450,
      "定": 4451,
      "酸菜": 4452,
      "原料": 4453,
      "中段": 4454,
      "一袋": 4455,
      "洗洗": 4456,
      "乐": 4457,
      "豆芽": 4458,
      "生菜": 4459,
      "放进去": 4460,
      "四川": 4461,
      "若干": 4462,
      "依据": 4463,
      "口味": 4464,
      "淀粉": 4465,
      "放过": 4466,
      "现成": 4467,
      "可用": 4468,
      "鱼片": 4469,
      "一边": 4470,
      "待用": 4471,
      "切丝": 4472,
      "两段": 4473,
      "两三个": 4474,
      "翻炒": 4475,
      "一会": 4476,
      "加水": 4477,
      "盖上": 4478,
      "锅盖": 4479,
      "分开": 4480,
      "盖子": 4481,
      "煮开": 4482,
      "闻到": 4483,
      "尝尝": 4484,
      "葱花": 4485,
      "起锅": 4486,
      "裹": 4487,
      "嫩": 4488,
      "好吃": 4489,
      "同样": 4490,
      "车型": 4491,
      "全是": 4492,
      "怎": 4493,
      "麽": 4494,
      "事儿": 4495,
      "行走": 4496,
      "轮子": 4497,
      "扭矩": 4498,
      "输出": 4499,
      "可变": 4500,
      "路面": 4501,
      "浪费": 4502,
      "扭力": 4503,
      "车轮": 4504,
      "正统": 4505,
      "H2": 4506,
      "卫士": 4507,
      "显卡": 4508,
      "画面": 4509,
      "最小化": 4510,
      "降到": 4511,
      "最差": 4512,
      "极限": 4513,
      "特工": 4514,
      "直升机": 4515,
      "光头": 4516,
      "白人": 4517,
      "黑人": 4518,
      "越狱": 4519,
      "一架": 4520,
      "右侧": 4521,
      "躺": 4522,
      "昏迷": 4523,
      "一针": 4524,
      "一集": 4525,
      "驾驶员": 4526,
      "第一集": 4527,
      "李": 4528,
      "编写": 4529,
      "文学史": 4530,
      "史": 4531,
      "十分": 4532,
      "感谢": 4533,
      "上下": 4534,
      "代": 4535,
      "上传": 4536,
      "点卡": 4537,
      "华东": 4538,
      "鼠标": 4539,
      "滚": 4540,
      "挽回": 4541,
      "转过": 4542,
      "客服": 4543,
      "提": 4544,
      "耐心": 4545,
      "苹果": 4546,
      "壳": 4547,
      "洛克": 4548,
      "要说": 4549,
      "注重": 4550,
      "差异化": 4551,
      "民法": 4552,
      "选择题": 4553,
      "有限责任": 4554,
      "社团": 4555,
      "法人": 4556,
      "公益": 4557,
      "态度": 4558,
      "怪怪的": 4559,
      "联系": 4560,
      "立即": 4561,
      "隔": 4562,
      "不理": 4563,
      "样子": 4564,
      "缠": 4565,
      "白": 4566,
      "宝贝": 4567,
      "磨牙": 4568,
      "晚": 4569,
      "每天晚上": 4570,
      "爸": 4571,
      "毛病": 4572,
      "遗传": 4573,
      "消化不良": 4574,
      "蛔虫": 4575,
      "小儿": 4576,
      "散": 4577,
      "上要": 4578,
      "做些": 4579,
      "易消化": 4580,
      "肠蠕动": 4581,
      "较慢": 4582,
      "氏": 4583,
      "纽": 4584,
      "肠道": 4585,
      "Q": 4586,
      "币": 4587,
      "天下": 4588,
      "午餐": 4589,
      "号称": 4590,
      "骗人": 4591,
      "人气": 4592,
      "盗": 4593,
      "官方网站": 4594,
      "举行": 4595,
      "投票": 4596,
      "赠送": 4597,
      "收获": 4598,
      "层": 4599,
      "NPC": 4600,
      "总之": 4601,
      "N": 4602,
      "道士": 4603,
      "招": 4604,
      "狗狗": 4605,
      "心情": 4606,
      "从不": 4607,
      "内向": 4608,
      "高兴": 4609,
      "无聊": 4610,
      "当兵": 4611,
      "上学": 4612,
      "网吧": 4613,
      "没意思": 4614,
      "以下几点": 4615,
      "离开": 4616,
      "亲朋好友": 4617,
      "迷茫": 4618,
      "千万": 4619,
      "饮用水": 4620,
      "烧开": 4621,
      "生成": 4622,
      "致癌": 4623,
      "胺": 4624,
      "一定量": 4625,
      "增高": 4626,
      "血红蛋白": 4627,
      "氧化": 4628,
      "缺氧": 4629,
      "窒息": 4630,
      "北美洲": 4631,
      "西北": 4632,
      "仅次于": 4633,
      "北面": 4634,
      "加拿大": 4635,
      "湖面": 4636,
      "面积": 4637,
      "平方公里": 4638,
      "深度": 4639,
      "1.2": 4640,
      "河流": 4641,
      "注入": 4642,
      "岛屿": 4643,
      "岛": 4644,
      "公园": 4645,
      "波斯": 4646,
      "群岛": 4647,
      "稀少": 4648,
      "水质": 4649,
      "清澈": 4650,
      "季节性": 4651,
      "旅游": 4652,
      "矿物": 4653,
      "人工": 4654,
      "法国": 4655,
      "探险家": 4656,
      "取自": 4657,
      "法语": 4658,
      "意": 4659,
      "学历": 4660,
      "大学生": 4661,
      "初中生": 4662,
      "相爱": 4663,
      "未来": 4664,
      "亲戚": 4665,
      "估计": 4666,
      "媳妇": 4667,
      "养活": 4668,
      "念头": 4669,
      "‘": 4670,
      "寒": 4671,
      "’": 4672,
      "退休": 4673,
      "不知所措": 4674,
      "帮帮忙": 4675,
      "身体健康": 4676,
      "副": 4677,
      "职称": 4678,
      "高校": 4679,
      "图书馆": 4680,
      "除去": 4681,
      "打球": 4682,
      "可行": 4683,
      "方案": 4684,
      "种种": 4685,
      "综合征": 4686,
      "克服": 4687,
      "乐趣": 4688,
      "生机": 4689,
      "忙碌": 4690,
      "老年人": 4691,
      "当做": 4692,
      "自已": 4693,
      "集体": 4694,
      "协会": 4695,
      "保持良好": 4696,
      "人际关系": 4697,
      "思想家": 4698,
      "哲学家": 4699,
      "有事": 4700,
      "得意": 4701,
      "从中": 4702,
      "益处": 4703,
      "度过": 4704,
      "晚年": 4705,
      "生意": 4706,
      "人家": 4707,
      "打工": 4708,
      "做点": 4709,
      "帮忙": 4710,
      "新兴": 4711,
      "创业者": 4712,
      "们": 4713,
      "青睐": 4714,
      "深受": 4715,
      "AA": 4716,
      "挺不错": 4717,
      "脐带": 4718,
      "急": 4719,
      "B超": 4720,
      "周": 4721,
      "觉": 4722,
      "姐妹": 4723,
      "当初": 4724,
      "怀": 4725,
      "胎心": 4726,
      "胎动": 4727,
      "绕": 4728,
      "劲": 4729,
      "顺产": 4730,
      "太大": 4731,
      "多月": 4732,
      "照片": 4733,
      "半月": 4734,
      "卢森堡": 4735,
      "公国": 4736,
      "作者": 4737,
      "未知": 4738,
      "The": 4739,
      "1993": 4740,
      "南斯拉夫": 4741,
      "官方语言": 4742,
      "通用": 4743,
      "德语": 4744,
      "民间": 4745,
      "口语": 4746,
      "居民": 4747,
      "信奉": 4748,
      "天主教": 4749,
      "首都": 4750,
      "西北部": 4751,
      "德国": 4752,
      "比利时": 4753,
      "接壤": 4754,
      "属": 4755,
      "海洋": 4756,
      "大陆": 4757,
      "气候": 4758,
      "平均气温": 4759,
      "平均": 4760,
      "降水量": 4761,
      "公元前": 4762,
      "部族": 4763,
      "居住": 4764,
      "公元": 4765,
      "入侵": 4766,
      "先后": 4767,
      "法兰克": 4768,
      "王国": 4769,
      "帝国": 4770,
      "～": 4771,
      "神圣": 4772,
      "罗马帝国": 4773,
      "阿登": 4774,
      "伯爵": 4775,
      "公爵": 4776,
      "世纪": 4777,
      "奥地利": 4778,
      "统治": 4779,
      "会议": 4780,
      "荷兰": 4781,
      "国王": 4782,
      "兼任": 4783,
      "大公": 4784,
      "德意志": 4785,
      "同盟": 4786,
      "伦敦": 4787,
      "协定": 4788,
      "19": 4789,
      "实行": 4790,
      "1890": 4791,
      "年前": 4792,
      "卢": 4793,
      "大战": 4794,
      "占领": 4795,
      "1984": 4796,
      "次年": 4797,
      "北约": 4798,
      "1958": 4799,
      "西部": 4800,
      "北部": 4801,
      "地势": 4802,
      "高地": 4803,
      "布尔": 4804,
      "普拉": 4805,
      "550": 4806,
      "平原": 4807,
      "河": 4808,
      "中游": 4809,
      "左岸": 4810,
      "支流": 4811,
      "寒冷": 4812,
      "枯竭": 4813,
      "覆盖率": 4814,
      "土地": 4815,
      "看下": 4816,
      "十月": 4817,
      "谢": 4818,
      "大哥": 4819,
      "68": 4820,
      "体魄": 4821,
      "防": 4822,
      "2100": 4823,
      "负重": 4824,
      "武林": 4825,
      "外传": 4826,
      "鸟": 4827,
      "破": 4828,
      "游侠": 4829,
      "增益": 4830,
      "加满": 4831,
      "拉开": 4832,
      "差距": 4833,
      "の": 4834,
      "追杀": 4835,
      "逃跑": 4836,
      "抢": 4837,
      "挂机": 4838,
      "琢磨": 4839,
      "符": 4840,
      "→": 4841,
      "剩下": 4842,
      "无用": 4843,
      "有钱": 4844,
      "抗性": 4845,
      "风": 4846,
      "超高": 4847,
      "沉默": 4848,
      "乃至": 4849,
      "差别": 4850,
      "对手": 4851,
      "61": 4852,
      "持续": 4853,
      "满级": 4854,
      "最高": 4855,
      "单体": 4856,
      "800": 4857,
      "警戒": 4858,
      "剑": 4859,
      "太低": 4860,
      "用处": 4861,
      "道德": 4862,
      "斗志": 4863,
      "加到": 4864,
      "眩晕": 4865,
      "虚弱": 4866,
      "邪": 4867,
      "P": 4868,
      "柳": 4869,
      "神仙": 4870,
      "负面": 4871,
      "释放": 4872,
      "关键时刻": 4873,
      "居家": 4874,
      "旅行": 4875,
      "招牌": 4876,
      "血量": 4877,
      "75%": 4878,
      "施放": 4879,
      "配有": 4880,
      "生物": 4881,
      "总结": 4882,
      "指教": 4883,
      "春雨": 4884,
      "六月": 4885,
      "遇": 4886,
      "中秋": 4887,
      "明": 4888,
      "流产": 4889,
      "星期": 4890,
      "流血": 4891,
      "还用": 4892,
      "医": 4893,
      "人流": 4894,
      "不适": 4895,
      "复查": 4896,
      "愁": 4897,
      "工科": 4898,
      "博士": 4899,
      "奋斗": 4900,
      "省会": 4901,
      "考前": 4902,
      "认真": 4903,
      "中考": 4904,
      "考": 4905,
      "50000": 4906,
      "省": 4907,
      "男孩": 4908,
      "短信": 4909,
      "高考": 4910,
      "中间": 4911,
      "咱": 4912,
      "饭店": 4913,
      "受不了": 4914,
      "苦": 4915,
      "不得已": 4916,
      "全家": 4917,
      "兄弟姐妹": 4918,
      "书生": 4919,
      "诸位": 4920,
      "骂": 4921,
      "通报": 4922,
      "讲个": 4923,
      "故事": 4924,
      "干部": 4925,
      "无论如何": 4926,
      "姑娘": 4927,
      "回家": 4928,
      "正": 4929,
      "开会": 4930,
      "放下": 4931,
      "伤心": 4932,
      "出门": 4933,
      "上网": 4934,
      "叼": 4935,
      "家伙": 4936,
      "好人": 4937,
      "哪有": 4938,
      "小女孩": 4939,
      "我刚": 4940,
      "日子": 4941,
      "生日": 4942,
      "眼泪": 4943,
      "流氓": 4944,
      "接着": 4945,
      "吃饭": 4946,
      "庆祝": 4947,
      "现实": 4948,
      "不足": 4949,
      "成就感": 4950,
      "寻求": 4951,
      "黑社会": 4952,
      "要么": 4953,
      "街头": 4954,
      "混": 4955,
      "讲过": 4956,
      "半天": 4957,
      "在家": 4958,
      "领导": 4959,
      "发生冲突": 4960,
      "第一位": 4961,
      "吸毒": 4962,
      "得不到": 4963,
      "重视": 4964,
      "碰到": 4965,
      "远不如": 4966,
      "反省": 4967,
      "尊敬": 4968,
      "赞美": 4969,
      "一个男孩": 4970,
      "70": 4971,
      "数学": 4972,
      "下滑": 4973,
      "外面": 4974,
      "对待": 4975,
      "做饭": 4976,
      "干什么": 4977,
      "搞": 4978,
      "小男孩": 4979,
      "好坏": 4980,
      "次要": 4981,
      "唱歌": 4982,
      "明星": 4983,
      "这边": 4984,
      "总在": 4985,
      "指责": 4986,
      "否定": 4987,
      "那边": 4988,
      "基本功": 4989,
      "英语": 4990,
      "叫做": 4991,
      "从根本上": 4992,
      "谴责": 4993,
      "回头": 4994,
      "昨天": 4995,
      "假如": 4996,
      "儿女": 4997,
      "更要": 4998,
      "讲究": 4999,
      "收到": 5000,
      "男同学": 5001,
      "纸条": 5002,
      "妈": 5003,
      "心事": 5004,
      "淡化": 5005,
      "写信": 5006,
      "呵": 5007,
      "事是": 5008,
      "中学": 5009,
      "来到": 5010,
      "暗示": 5011,
      "周期": 5012,
      "应对": 5013,
      "技巧": 5014,
      "储备": 5015,
      "长短": 5016,
      "倾听": 5017,
      "欧洲杯": 5018,
      "小组": 5019,
      "预选赛": 5020,
      "九个": 5021,
      "第一名": 5022,
      "第二名": 5023,
      "抽签": 5024,
      "波兰": 5025,
      "本次": 5026,
      "出线": 5027,
      "分组": 5028,
      "乌克兰": 5029,
      "球队": 5030,
      "支": 5031,
      "世界杯": 5032,
      "排名": 5033,
      "积分": 5034,
      "意大利": 5035,
      "英格兰": 5036,
      "克罗地亚": 5037,
      "葡萄牙": 5038,
      "俄罗斯": 5039,
      "希腊": 5040,
      "捷克": 5041,
      "瑞典": 5042,
      "瑞士": 5043,
      "塞尔维亚": 5044,
      "土耳其": 5045,
      "丹麦": 5046,
      "斯洛伐克": 5047,
      "罗马尼亚": 5048,
      "档": 5049,
      "以色列": 5050,
      "保加利亚": 5051,
      "芬兰": 5052,
      "挪威": 5053,
      "爱尔兰": 5054,
      "苏格兰": 5055,
      "斯洛文尼亚": 5056,
      "拉脱维亚": 5057,
      "匈牙利": 5058,
      "立陶宛": 5059,
      "白俄罗斯": 5060,
      "威尔士": 5061,
      "马其顿": 5062,
      "黑山": 5063,
      "阿尔巴尼亚": 5064,
      "爱沙尼亚": 5065,
      "格鲁吉亚": 5066,
      "冰岛": 5067,
      "亚美尼亚": 5068,
      "哈萨克斯坦": 5069,
      "第六": 5070,
      "阿塞拜疆": 5071,
      "仪式": 5072,
      "获胜": 5073,
      "积": 5074,
      "平局": 5075,
      "输球": 5076,
      "得分": 5077,
      "支队": 5078,
      "顺序": 5079,
      "b": 5080,
      "d": 5081,
      "客场": 5082,
      "小组赛": 5083,
      "g": 5084,
      "i": 5085,
      "公平": 5086,
      "竞赛": 5087,
      "j": 5088,
      "判定": 5089,
      "各个": 5090,
      "五名": 5091,
      "淘汰赛": 5092,
      "对阵": 5093,
      "形势": 5094,
      "排位": 5095,
      "参照": 5096,
      "国家队": 5097,
      "种子": 5098,
      "晋级": 5099,
      "一条": 5100,
      "两队": 5101,
      "回合": 5102,
      "共计": 5103,
      "客队": 5104,
      "打成": 5105,
      "点球": 5106,
      "足协": 5107,
      "承办": 5108,
      "决赛": 5109,
      "阶段": 5110,
      "A1": 5111,
      "B1": 5112,
      "C1": 5113,
      "A2": 5114,
      "B2": 5115,
      "A4": 5116,
      "足球": 5117,
      "系数": 5118,
      "日程": 5119,
      "采取": 5120,
      "制": 5121,
      "第一轮": 5122,
      "第二轮": 5123,
      "第三轮": 5124,
      "交战": 5125,
      "数都": 5126,
      "平": 5127,
      "四分之一": 5128,
      "半决赛": 5129,
      "胜者": 5130,
      "赛程": 5131,
      "2011": 5132,
      "26": 5133,
      "29": 5134,
      "日到": 5135,
      "SS": 5136,
      "困惑": 5137,
      "新技能": 5138,
      "本来": 5139,
      "毛毛": 5140,
      "妖精": 5141,
      "费劲": 5142,
      "算了": 5143,
      "老总": 5144,
      "我会": 5145,
      "凤凰": 5146,
      "WX": 5147,
      "MG": 5148,
      "厕所": 5149,
      "电视": 5150,
      "老虎": 5151,
      "身后": 5152,
      "干掉": 5153,
      "法师": 5154,
      "别提": 5155,
      "最强": 5156,
      "平庸": 5157,
      "估价": 5158,
      "能卖": 5159,
      "Ｄ": 5160,
      "盾": 5161,
      "７": 5162,
      "Ｗ": 5163,
      "侠": 5164,
      "下个": 5165,
      "加密": 5166,
      "我用": 5167,
      "代言": 5168,
      "永久": 5169,
      "隐私": 5170,
      "动态": 5171,
      "IP": 5172,
      "拨号": 5173,
      "近来": 5174,
      "IP地址": 5175,
      "开头": 5176,
      "网速": 5177,
      "才行": 5178,
      "拨": 5179,
      "所述": 5180,
      "宽带": 5181,
      "机房": 5182,
      "服务器端": 5183,
      "关机": 5184,
      "开机": 5185,
      "两台": 5186,
      "冲突": 5187,
      "只好": 5188,
      "保暖": 5189,
      "深圳": 5190,
      "监控": 5191,
      "摄像机": 5192,
      "科技": 5193,
      "有限公司": 5194,
      "品种": 5195,
      "摄像头": 5196,
      "红外": 5197,
      "帮到": 5198,
      "买车": 5199,
      "86": 5200,
      "S": 5201,
      "极速": 5202,
      "330": 5203,
      "开过": 5204,
      "百万": 5205,
      "加速": 5206,
      "急速": 5207,
      "天蝎": 5208,
      "Ｔ": 5209,
      "可否": 5210,
      "电压": 5211,
      "线圈": 5212,
      "供电": 5213,
      "同名": 5214,
      "接入": 5215,
      "电路": 5216,
      "侧": 5217,
      "一根": 5218,
      "二次": 5219,
      "端的": 5220,
      "线上": 5221,
      "源": 5222,
      "计量": 5223,
      "电流": 5224,
      "用电": 5225,
      "那有": 5226,
      "建筑": 5227,
      "装饰": 5228,
      "无意": 5229,
      "好奇": 5230,
      "两者": 5231,
      "党": 5232,
      "走开": 5233,
      "百度": 5234,
      "室内": 5235,
      "布置": 5236,
      "平面": 5237,
      "展示": 5238,
      "建筑物": 5239,
      "NET": 5240,
      "源码": 5241,
      "比尔": 5242,
      "盖茨": 5243,
      "战略": 5244,
      "仍然": 5245,
      "阐明": 5246,
      "缘由": 5247,
      "场景": 5248,
      "微软": 5249,
      "清晰": 5250,
      "2002": 5251,
      "后缀": 5252,
      "着手": 5253,
      "产品名称": 5254,
      "2003": 5255,
      "惟一": 5256,
      "Visual": 5257,
      "Studio": 5258,
      "开发工具": 5259,
      "事实上": 5260,
      "代号": 5261,
      "2005": 5262,
      "看成": 5263,
      "Windows": 5264,
      "Office": 5265,
      "一组": 5266,
      "MSN": 5267,
      "订阅": 5268,
      "特征": 5269,
      "手表": 5270,
      "高质量": 5271,
      "时尚": 5272,
      "昂贵": 5273,
      "联通": 5274,
      "几点": 5275,
      "解释一下": 5276,
      "事物": 5277,
      "连接起来": 5278,
      "外部": 5279,
      "Oracle": 5280,
      "ERP": 5281,
      "套件": 5282,
      "PC": 5283,
      "IT": 5284,
      "商务": 5285,
      "面向": 5286,
      "Service": 5287,
      "基于": 5288,
      "XML": 5289,
      "Web": 5290,
      "整合": 5291,
      "灵活性": 5292,
      "创建": 5293,
      "开发": 5294,
      "部署": 5295,
      "主席": 5296,
      "Jack": 5297,
      "竞争": 5298,
      "竞争对手": 5299,
      "更快": 5300,
      "转化": 5301,
      "既": 5302,
      "作出": 5303,
      "付": 5304,
      "事实": 5305,
      "厂商": 5306,
      "名词": 5307,
      "有趣": 5308,
      "认可": 5309,
      "不同之处": 5310,
      "技术人员": 5311,
      "之上": 5312,
      "新一代": 5313,
      "变化": 5314,
      "高性能": 5315,
      "应用程序": 5316,
      "精确": 5317,
      "公共": 5318,
      "Language": 5319,
      "调用": 5320,
      "核心": 5321,
      "For": 5322,
      "Excel": 5323,
      "企业级": 5324,
      "程序开发": 5325,
      "重用": 5326,
      "共性": 5327,
      "访问": 5328,
      "日志": 5329,
      "移动": 5330,
      "智能": 5331,
      "Explorer": 5332,
      "浏览器": 5333,
      "赞扬": 5334,
      "票": 5335,
      "赞": 5336,
      "一票": 5337,
      "堵": 5338,
      "何必": 5339,
      "呐喊": 5340,
      "差劲": 5341,
      "竟": 5342,
      "鄙视": 5343,
      "实际上": 5344,
      "999": 5345,
      "36": 5346,
      "42": 5347,
      "39": 5348,
      "修": 5349,
      "接过": 5350,
      "北边": 5351,
      "鬼": 5352,
      "对话": 5353,
      "澳洲": 5354,
      "普通": 5355,
      "澳": 5356,
      "一流": 5357,
      "门槛": 5358,
      "名校": 5359,
      "哪些方面": 5360,
      "更高": 5361,
      "误区": 5362,
      "毕业生": 5363,
      "good": 5364,
      "满意度": 5365,
      "极低": 5366,
      "三星": 5367,
      "评估": 5368,
      "何为": 5369,
      "同学": 5370,
      "xx": 5371,
      "分给": 5372,
      "松": 5373,
      "不时": 5374,
      "HD": 5375,
      "便会": 5376,
      "联想": 5377,
      "讲师": 5378,
      "设想": 5379,
      "相对论": 5380,
      "抓": 5381,
      "紧": 5382,
      "学生会": 5383,
      "不满": 5384,
      "人少": 5385,
      "激烈": 5386,
      "困难": 5387,
      "难得": 5388,
      "就业": 5389,
      "教": 5390,
      "教给": 5391,
      "前提": 5392,
      "并不一定": 5393,
      "扎实": 5394,
      "学到": 5395,
      "这点": 5396,
      "假设": 5397,
      "两人": 5398,
      "相等": 5399,
      "应聘": 5400,
      "面试": 5401,
      "名气": 5402,
      "一块": 5403,
      "很强": 5404,
      "别的": 5405,
      "来得": 5406,
      "本文": 5407,
      "本站": 5408,
      "留学": 5409,
      "讨论": 5410,
      "拷贝": 5411,
      "不留": 5412,
      "卸载": 5413,
      "魔法": 5414,
      "优化大师": 5415,
      "放到": 5416,
      "回收站": 5417,
      "清空": 5418,
      "机器": 5419,
      "盘中": 5420,
      "痕迹": 5421,
      "有过": 5422,
      "展开": 5423,
      "解法": 5424,
      "行列": 5425,
      "交换": 5426,
      "公式": 5427,
      "变换": 5428,
      "激活码": 5429,
      "excel": 5430,
      "复制粘贴": 5431,
      "数据量": 5432,
      "理想": 5433,
      "试一下": 5434,
      "按钮": 5435,
      "事件": 5436,
      "声明": 5437,
      "变量": 5438,
      "On": 5439,
      "Error": 5440,
      "False": 5441,
      "刷新": 5442,
      "In": 5443,
      "每条": 5444,
      "写入": 5445,
      "简称": 5446,
      "To": 5447,
      "列": 5448,
      "If": 5449,
      "忽略": 5450,
      "256": 5451,
      "金额": 5452,
      "大写": 5453,
      "True": 5454,
      "财富": 5455,
      "支付": 5456,
      "消费": 5457,
      "急需": 5458,
      "5173": 5459,
      "客户服务": 5460,
      "为您服务": 5461,
      "感谢您": 5462,
      "海马": 5463,
      "海": 5464,
      "马": 5465,
      "附": 5466,
      "海藻": 5467,
      "性生活": 5468,
      "游泳": 5469,
      "直立": 5470,
      "摆动": 5471,
      "背鳍": 5472,
      "前进": 5473,
      "雌": 5474,
      "育儿": 5475,
      "腔": 5476,
      "用作": 5477,
      "性功能": 5478,
      "衰竭": 5479,
      "つ": 5480,
      "w": 5481,
      "中部": 5482,
      "t": 5483,
      "催生": 5484,
      "﹑": 5485,
      "於": 5486,
      "退": 5487,
      "谜": 5488,
      "英文": 5489,
      "发音": 5490,
      "WOW": 5491,
      "缺失": 5492,
      "求解": 5493,
      "准确": 5494,
      "3.3": 5495,
      "版": 5496,
      "目录": 5497,
      "环形": 5498,
      "跑道": 5499,
      "每分钟": 5500,
      "停下来": 5501,
      "首次": 5502,
      "追上": 5503,
      "抱歉": 5504,
      "大师": 5505,
      "建筑面积": 5506,
      "105": 5507,
      "平米": 5508,
      "92": 5509,
      "餐桌": 5510,
      "橱柜": 5511,
      "旁边": 5512,
      "屋子": 5513,
      "拥挤": 5514,
      "户型": 5515,
      "书房": 5516,
      "出差": 5517,
      "周六": 5518,
      "今天上午": 5519,
      "不停": 5520,
      "餐厅": 5521,
      "阳台": 5522,
      "客厅": 5523,
      "暗": 5524,
      "玻璃": 5525,
      "房间": 5526,
      "白天": 5527,
      "铝合金": 5528,
      "红线": 5529,
      "卧室": 5530,
      "落地": 5531,
      "窗帘": 5532,
      "暂时": 5533,
      "晾": 5534,
      "练习": 5535,
      "英语口语": 5536,
      "外国人": 5537,
      "不要紧": 5538,
      "不光": 5539,
      "听懂": 5540,
      "母语": 5541,
      "人有": 5542,
      "突破": 5543,
      "说错": 5544,
      "自尊": 5545,
      "敢于": 5546,
      "加强": 5547,
      "新闻": 5548,
      "听力": 5549,
      "积累": 5550,
      "而言": 5551,
      "当天": 5552,
      "单词": 5553,
      "take": 5554,
      "自我感觉": 5555,
      "前些天": 5556,
      "英语老师": 5557,
      "很漂亮": 5558,
      "&": 5559,
      "Ｘ": 5560,
      "<": 5561,
      "取值": 5562,
      "已知": 5563,
      "分辨": 5564,
      "人会": 5565,
      "某": 5566,
      "一再": 5567,
      "试问": 5568,
      "会想": 5569,
      "迟早": 5570,
      "资格": 5571,
      "好比": 5572,
      "如果说": 5573,
      "爱上": 5574,
      "对得起": 5575,
      "良心": 5576,
      "起码": 5577,
      "不论是": 5578,
      "所有人": 5579,
      "丸": 5580,
      "大葱": 5581,
      "切碎": 5582,
      "搅拌机": 5583,
      "制成": 5584,
      "形状": 5585,
      "成型": 5586,
      "固化": 5587,
      "包装": 5588,
      "订购": 5589,
      "胶带": 5590,
      "经营": 5591,
      "自行车": 5592,
      "电动车": 5593,
      "微型": 5594,
      "贵州": 5595,
      "存钱": 5596,
      "开户": 5597,
      "存": 5598,
      "不去": 5599,
      "网点": 5600,
      "象": 5601,
      "存折": 5602,
      "留在": 5603,
      "这样的话": 5604,
      "询问": 5605,
      "填写": 5606,
      "授权": 5607,
      "拿到": 5608,
      "出钱": 5609,
      "下次": 5610,
      "磨损": 5611,
      "磁场": 5612,
      "经络": 5613,
      "不通": 5614,
      "不信": 5615,
      "针对性": 5616,
      "人民": 5617,
      "挺大": 5618,
      "经常出现": 5619,
      "使用寿命": 5620,
      "机子": 5621,
      "部件": 5622,
      "有无": 5623,
      "优化": 5624,
      "硬盘": 5625,
      "注册表": 5626,
      "来看": 5627,
      "硬件": 5628,
      "电源": 5629,
      "CPU": 5630,
      "风扇": 5631,
      "散热": 5632,
      "奇怪": 5633,
      "柴油": 5634,
      "拖": 5635,
      "排放": 5636,
      "浓浓的": 5637,
      "烟": 5638,
      "冒出来": 5639,
      "倍": 5640,
      "发动机": 5641,
      "精细": 5642,
      "外国": 5643,
      "降低": 5644,
      "社交": 5645,
      "想一想": 5646,
      "改进": 5647,
      "图书": 5648,
      "杂志": 5649,
      "多元化": 5650,
      "心理学": 5651,
      "开店": 5652,
      "十年": 5653,
      "边": 5654,
      "跪求": 5655,
      "肿痛": 5656,
      "发热": 5657,
      "受限": 5658,
      "脊柱": 5659,
      "食指": 5660,
      "中指": 5661,
      "僵硬": 5662,
      "西药": 5663,
      "离子": 5664,
      "导入": 5665,
      "紫外线": 5666,
      "西医": 5667,
      "尚无": 5668,
      "对症": 5669,
      "镇痛": 5670,
      "麻木": 5671,
      "族": 5672,
      "类药物": 5673,
      "积液": 5674,
      "给予": 5675,
      "局部": 5676,
      "抽取": 5677,
      "封闭": 5678,
      "当选": 5679,
      "保守": 5680,
      "就医": 5681,
      "寻": 5682,
      "中线": 5683,
      "医药": 5684,
      "股": 5685,
      "基本面": 5686,
      "盘子": 5687,
      "恶": 5688,
      "重组": 5689,
      "预期": 5690,
      "近期": 5691,
      "上升": 5692,
      "通道": 5693,
      "自动关机": 5694,
      "笔记本": 5695,
      "蓝屏": 5696,
      "一大堆": 5697,
      "触": 5698,
      "动静": 5699,
      "重新安装": 5700,
      "排除": 5701,
      "重装系统": 5702,
      "维修": 5703,
      "扬州": 5704,
      "特产": 5705,
      "烟花": 5706,
      "三月": 5707,
      "这座": 5708,
      "园": 5709,
      "城中": 5710,
      "园林": 5711,
      "秀丽": 5712,
      "风光": 5713,
      "悠久": 5714,
      "少不了": 5715,
      "备受": 5716,
      "产地": 5717,
      "古籍": 5718,
      "记述": 5719,
      "中是": 5720,
      "一颗": 5721,
      "高档": 5722,
      "品": 5723,
      "装饰品": 5724,
      "收藏": 5725,
      "炉": 5726,
      "作品": 5727,
      "仿制": 5728,
      "青铜": 5729,
      "造型": 5730,
      "妙": 5731,
      "更能": 5732,
      "体现": 5733,
      "题材": 5734,
      "广泛": 5735,
      "打破": 5736,
      "单调": 5737,
      "构图": 5738,
      "景物": 5739,
      "相结合": 5740,
      "多层次": 5741,
      "更是": 5742,
      "观赏": 5743,
      "灯": 5744,
      "塔": 5745,
      "花卉": 5746,
      "壶": 5747,
      "杯": 5748,
      "用品": 5749,
      "尊": 5750,
      "技艺": 5751,
      "精湛": 5752,
      "色彩": 5753,
      "绚丽": 5754,
      "实用性": 5755,
      "划分": 5756,
      "啤酒": 5757,
      "柜": 5758,
      "套": 5759,
      "几": 5760,
      "罐": 5761,
      "工艺": 5762,
      "镶嵌": 5763,
      "流行": 5764,
      "地区": 5765,
      "点缀": 5766,
      "美化": 5767,
      "唐代": 5768,
      "兴盛": 5769,
      "自古": 5770,
      "历代": 5771,
      "文章": 5772,
      "诗人": 5773,
      "演出": 5774,
      "写下": 5775,
      "千年": 5776,
      "相互作用": 5777,
      "图案": 5778,
      "粘贴": 5779,
      "面料": 5780,
      "延续": 5781,
      "直到现在": 5782,
      "沿用": 5783,
      "此法": 5784,
      "艺人": 5785,
      "密切关系": 5786,
      "战争": 5787,
      "后代": 5788,
      "技师": 5789,
      "探索": 5790,
      "口感": 5791,
      "韧性": 5792,
      "一体": 5793,
      "绿叶": 5794,
      "甜度": 5795,
      "色泽": 5796,
      "甜味": 5797,
      "适中": 5798,
      "已成": 5799,
      "亲友": 5800,
      "郊区": 5801,
      "青山": 5802,
      "山": 5803,
      "质地": 5804,
      "优良": 5805,
      "本市": 5806,
      "四季": 5807,
      "皆": 5808,
      "供应": 5809,
      "尤为": 5810,
      "蛋黄": 5811,
      "壮": 5812,
      "排卵": 5813,
      "煮熟": 5814,
      "蛋白": 5815,
      "一说": 5816,
      "以此": 5817,
      "师傅": 5818,
      "得名": 5819,
      "创": 5820,
      "白糖": 5821,
      "麦芽": 5822,
      "手工": 5823,
      "精制": 5824,
      "香甜": 5825,
      "江南": 5826,
      "品尝": 5827,
      "赞赏": 5828,
      "从此": 5829,
      "列为": 5830,
      "四方": 5831,
      "1927": 5832,
      "西湖": 5833,
      "博览会": 5834,
      "一等奖": 5835,
      "鸡肉": 5836,
      "清香": 5837,
      "商标": 5838,
      "礼品": 5839,
      "乡": 5840,
      "节": 5841,
      "鲜美": 5842,
      "藕": 5843,
      "明代": 5844,
      "易于": 5845,
      "尤": 5846,
      "糕点": 5847,
      "圆形": 5848,
      "酥": 5849,
      "改为": 5850,
      "方形": 5851,
      "更名": 5852,
      "又名": 5853,
      "面粉": 5854,
      "麻油": 5855,
      "香料": 5856,
      "发酵": 5857,
      "多层": 5858,
      "折叠": 5859,
      "文火": 5860,
      "烘烤": 5861,
      "调味": 5862,
      "日常生活": 5863,
      "甜": 5864,
      "脆": 5865,
      "四大": 5866,
      "畅销": 5867,
      "国内外": 5868,
      "腌": 5869,
      "酱": 5870,
      "切": 5871,
      "缸": 5872,
      "工序": 5873,
      "腌制": 5874,
      "双": 5875,
      "稀": 5876,
      "乳": 5877,
      "黄瓜": 5878,
      "菜": 5879,
      "历史悠久": 5880,
      "清代": 5881,
      "列入": 5882,
      "宫廷": 5883,
      "早晚": 5884,
      "1903": 5885,
      "获": 5886,
      "三年": 5887,
      "1911": 5888,
      "奖章": 5889,
      "1931": 5890,
      "北平": 5891,
      "1979": 5892,
      "评为": 5893,
      "江苏省": 5894,
      "厂家": 5895,
      "两家": 5896,
      "厂": 5897,
      "市场占有率": 5898,
      "位居": 5899,
      "首": 5900,
      "宋代": 5901,
      "水系": 5902,
      "泉水": 5903,
      "酿造": 5904,
      "健身": 5905,
      "菜系": 5906,
      "组成部分": 5907,
      "小吃": 5908,
      "点心": 5909,
      "温水": 5910,
      "面团": 5911,
      "面条": 5912,
      "多变": 5913,
      "擅长": 5914,
      "覆盖": 5915,
      "各式": 5916,
      "多以": 5917,
      "配以": 5918,
      "趋于": 5919,
      "新鲜": 5920,
      "突出": 5921,
      "兼有": 5922,
      "浓郁": 5923,
      "实惠": 5924,
      "包子": 5925,
      "翡翠": 5926,
      "糯米": 5927,
      "卷子": 5928,
      "饼": 5929,
      "火烧": 5930,
      "桂花": 5931,
      "糖": 5932,
      "糕": 5933,
      "馄饨": 5934,
      "美食": 5935,
      "富": 5936,
      "社": 5937,
      "春": 5938,
      "新世界": 5939,
      "电": 5940,
      "大厦": 5941,
      "皇宫": 5942,
      "聚": 5943,
      "清": 5944,
      "一份": 5945,
      "清新": 5946,
      "心境": 5947,
      "西班牙语": 5948,
      "问问": 5949,
      "海南": 5950,
      "海边": 5951,
      "海棠": 5952,
      "湾": 5953,
      "热门": 5954,
      "旅游景点": 5955,
      "交通": 5956,
      "并不多": 5957,
      "乘以": 5958,
      "恰好": 5959,
      "老二": 5960,
      "传递信息": 5961,
      "左下角": 5962,
      "万分": 5963,
      "梦到": 5964,
      "男朋友": 5965,
      "分不清": 5966,
      "梦": 5967,
      "恐怖": 5968,
      "梦见": 5969,
      "灾难": 5970,
      "降临": 5971,
      "生": 5972,
      "少女": 5973,
      "无能": 5974,
      "订婚": 5975,
      "青年": 5976,
      "人来": 5977,
      "提过": 5978,
      "打扰": 5979,
      "睡眠": 5980,
      "事业": 5981,
      "病人": 5982,
      "康复": 5983,
      "商人": 5984,
      "失眠": 5985,
      "睡着": 5986,
      "妻子": 5987,
      "入睡": 5988,
      "夫妻": 5989,
      "一把": 5990,
      "剪刀": 5991,
      "底下": 5992,
      "时节": 5993,
      "要少": 5994,
      "螃蟹": 5995,
      "姜蒜": 5996,
      "切忌": 5997,
      "呕吐": 5998,
      "营养不良": 5999,
      "心慌": 6000,
      "记忆力": 6001,
      "减退": 6002,
      "四肢无力": 6003,
      "措施": 6004,
      "铁质": 6005,
      "鸭": 6006,
      "羊": 6007,
      "肾脏": 6008,
      "黄豆": 6009,
      "番茄": 6010,
      "黑木耳": 6011,
      "香菇": 6012,
      "紫菜": 6013,
      "桃子": 6014,
      "桂圆": 6015,
      "葡萄干": 6016,
      "祖国": 6017,
      "早期": 6018,
      "妊娠": 6019,
      "寒凉": 6020,
      "不利": 6021,
      "堕胎": 6022,
      "甲鱼": 6023,
      "称为": 6024,
      "滋阴": 6025,
      "营养": 6026,
      "菜肴": 6027,
      "较强": 6028,
      "因而": 6029,
      "之力": 6030,
      "更强": 6031,
      "忌食": 6032,
      "滑": 6033,
      "又称": 6034,
      "薏米": 6035,
      "同源": 6036,
      "之物": 6037,
      "子宫": 6038,
      "平滑肌": 6039,
      "兴奋": 6040,
      "促使": 6041,
      "草药": 6042,
      "次数": 6043,
      "强度": 6044,
      "盲目": 6045,
      "吃喝": 6046,
      "胡乱": 6047,
      "损害": 6048,
      "母体": 6049,
      "八点": 6050,
      "不多": 6051,
      "脂肪": 6052,
      "增强": 6053,
      "血脂": 6054,
      "升高": 6055,
      "分解": 6056,
      "酮": 6057,
      "血症": 6058,
      "倾向": 6059,
      "脱水": 6060,
      "头昏": 6061,
      "蛋蛋": 6062,
      "类食品": 6063,
      "蛋白质": 6064,
      "磷脂": 6065,
      "营养素": 6066,
      "蛋": 6067,
      "胶": 6068,
      "有害物质": 6069,
      "腹胀": 6070,
      "食欲": 6071,
      "头晕": 6072,
      "疲倦": 6073,
      "高蛋白": 6074,
      "孕期": 6075,
      "补钙": 6076,
      "出世": 6077,
      "患儿": 6078,
      "前倾": 6079,
      "主动脉": 6080,
      "窄": 6081,
      "缩": 6082,
      "健美": 6083,
      "摄取": 6084,
      "就够": 6085,
      "食欲不振": 6086,
      "早孕": 6087,
      "减轻": 6088,
      "学者": 6089,
      "酸度": 6090,
      "分裂": 6091,
      "增殖": 6092,
      "突变": 6093,
      "畸形": 6094,
      "过度": 6095,
      "吸附": 6096,
      "患有": 6097,
      "综合症": 6098,
      "浮肿": 6099,
      "蛋白尿": 6100,
      "晕眩": 6101,
      "危及": 6102,
      "母婴": 6103,
      "六": 6104,
      "高糖": 6105,
      "血糖": 6106,
      "偏高": 6107,
      "生出": 6108,
      "过重": 6109,
      "发生率": 6110,
      "剖腹产": 6111,
      "偏低": 6112,
      "七": 6113,
      "服食": 6114,
      "壁": 6115,
      "扩张": 6116,
      "充血": 6117,
      "内分泌": 6118,
      "水肿": 6119,
      "再者": 6120,
      "胃肠道": 6121,
      "胃胀": 6122,
      "便秘": 6123,
      "八": 6124,
      "不吃": 6125,
      "着床": 6126,
      "分化": 6127,
      "染色体": 6128,
      "断裂": 6129,
      "停止": 6130,
      "遗传性": 6131,
      "弱智": 6132,
      "另一方面": 6133,
      "毒性": 6134,
      "妇女": 6135,
      "木材": 6136,
      "煤炭": 6137,
      "燃料": 6138,
      "散发出": 6139,
      "化合物": 6140,
      "细胞核": 6141,
      "核酸": 6142,
      "油炸": 6143,
      "高温": 6144,
      "营养价值": 6145,
      "常吃": 6146,
      "摄入量": 6147,
      "铝": 6148,
      "胎盘": 6149,
      "大脑": 6150,
      "障碍": 6151,
      "痴呆": 6152,
      "胃肠功能": 6153,
      "胃肠": 6154,
      "胃液": 6155,
      "机能": 6156,
      "现代医学": 6157,
      "饮料": 6158,
      "添加剂": 6159,
      "土豆": 6160,
      "马铃薯": 6161,
      "众所周知": 6162,
      "发芽": 6163,
      "警惕": 6164,
      "播种": 6165,
      "贮存": 6166,
      "无脑": 6167,
      "孕前": 6168,
      "期内": 6169,
      "热性": 6170,
      "胡椒": 6171,
      "调味品": 6172,
      "大开": 6173,
      "胃口": 6174,
      "有利": 6175,
      "勿": 6176,
      "痔疮": 6177,
      "山楂": 6178,
      "本品": 6179,
      "开胃": 6180,
      "现已": 6181,
      "菠菜": 6182,
      "含铁": 6183,
      "补血": 6184,
      "草酸": 6185,
      "锌": 6186,
      "微量元素": 6187,
      "防腐剂": 6188,
      "婴儿": 6189,
      "及其": 6190,
      "营养成分": 6191,
      "不高": 6192,
      "尿": 6193,
      "排出": 6194,
      "缺锌": 6195,
      "生长发育": 6196,
      "为宜": 6197,
      "饱腹": 6198,
      "感": 6199,
      "发胖": 6200,
      "酸": 6201,
      "动物": 6202,
      "饲料": 6203,
      "极大": 6204,
      "特殊": 6205,
      "加工": 6206,
      "皮蛋": 6207,
      "制品": 6208,
      "丢失": 6209,
      "禁忌": 6210,
      "不良影响": 6211,
      "海带": 6212,
      "软坚散结": 6213,
      "荸荠": 6214,
      "忌": 6215,
      "进食": 6216,
      "胎": 6217,
      "羊肉": 6218,
      "狗肉": 6219,
      "麻雀": 6220,
      "香菜": 6221,
      "荔枝": 6222,
      "杏仁": 6223,
      "●": 6224,
      "洗头": 6225,
      "前先": 6226,
      "刮": 6227,
      "大风": 6228,
      "觉醒": 6229,
      "必然": 6230,
      "通顺": 6231,
      "秘诀": 6232,
      "疏": 6233,
      "末端": 6234,
      "顶部": 6235,
      "顺着": 6236,
      "或用": 6237,
      "装有": 6238,
      "绝不": 6239,
      "头顶": 6240,
      "挤": 6241,
      "来自": 6242,
      "损伤": 6243,
      "摩擦": 6244,
      "洗衣": 6245,
      "泡沫": 6246,
      "用力": 6247,
      "搓": 6248,
      "手指": 6249,
      "素": 6250,
      "湿": 6251,
      "只用": 6252,
      "垂直": 6253,
      "擦干": 6254,
      "学问": 6255,
      "两条": 6256,
      "第一条": 6257,
      "第二条": 6258,
      "极度": 6259,
      "吹": 6260,
      "充满活力": 6261,
      "演": 6262,
      "藤原": 6263,
      "人选": 6264,
      "人数": 6265,
      "周杰伦": 6266,
      "看不到": 6267,
      "难怪": 6268,
      "演技": 6269,
      "吓人": 6270,
      "演戏": 6271,
      "简直": 6272,
      "博文": 6273,
      "播放器": 6274,
      "发表文章": 6275,
      "器": 6276,
      "文本框": 6277,
      "正文": 6278,
      "勾选": 6279,
      "源代码": 6280,
      "换上": 6281,
      "rc": 6282,
      "width": 6283,
      "height": 6284,
      "type": 6285,
      "true": 6286,
      "播放": 6287,
      "宽度": 6288,
      "灵活": 6289,
      "false": 6290,
      "整数": 6291,
      "电子邮件": 6292,
      "自助": 6293,
      "一系列": 6294,
      "静态": 6295,
      "组成": 6296,
      "随时随地": 6297,
      "自主": 6298,
      "功能强大": 6299,
      "互动性": 6300,
      "建设": 6301,
      "之多": 6302,
      "恐怕": 6303,
      "一一": 6304,
      "传媒": 6305,
      "高速": 6306,
      "注意力": 6307,
      "媒体": 6308,
      "开拓": 6309,
      "自由": 6310,
      "音频": 6311,
      "logo": 6312,
      "模板": 6313,
      "供": 6314,
      "自由选择": 6315,
      "背景音乐": 6316,
      "喜好": 6317,
      "访问者": 6318,
      "九": 6319,
      "自行": 6320,
      "十": 6321,
      "问卷": 6322,
      "十一": 6323,
      "推广": 6324,
      "十三": 6325,
      "十四": 6326,
      "十五": 6327,
      "使用率": 6328,
      "预售": 6329,
      "火车票": 6330,
      "预留": 6331,
      "车票": 6332,
      "车站": 6333,
      "发售": 6334,
      "焦虑症": 6335,
      "显著": 6336,
      "焦虑": 6337,
      "中医院": 6338,
      "落户": 6339,
      "西南": 6340,
      "实验室": 6341,
      "这家": 6342,
      "公立医院": 6343,
      "医保": 6344,
      "定点": 6345,
      "早点": 6346,
      "周边": 6347,
      "下雪": 6348,
      "下场": 6349,
      "大雪": 6350,
      "第一场": 6351,
      "迟到": 6352,
      "工业": 6353,
      "刻": 6354,
      "逢": 6355,
      "敌人": 6356,
      "座": 6357,
      "奥": 6358,
      "报": 6359,
      "解开": 6360,
      "三次": 6361,
      "墙壁": 6362,
      "舞蹈": 6363,
      "蝴蝶": 6364,
      "误解": 6365,
      "五个": 6366,
      "机关": 6367,
      "照相机": 6368,
      "角落": 6369,
      "墙上": 6370,
      "谜题": 6371,
      "升到": 6372,
      "戒指": 6373,
      "手镯": 6374,
      "和平": 6375,
      "砍": 6376,
      "天龙": 6377,
      "大刀": 6378,
      "鳞": 6379,
      "首饰": 6380,
      "极品": 6381,
      "魔杖": 6382,
      "方子": 6383,
      "砸": 6384,
      "碎": 6385,
      "摸": 6386,
      "规律": 6387,
      "摘": 6388,
      "印度": 6389,
      "公布": 6390,
      "人口普查": 6391,
      "为期": 6392,
      "三周": 6393,
      "1991": 6394,
      "大规模": 6395,
      "普查": 6396,
      "城镇": 6397,
      "村庄": 6398,
      "户": 6399,
      "截至": 6400,
      "亿": 6401,
      "继": 6402,
      "总人口": 6403,
      "1.8": 6404,
      "参考资料": 6405,
      "家族": 6406,
      "护": 6407,
      "315": 6408,
      "猴": 6409,
      "108": 6410,
      "引发": 6411,
      "阴虚": 6412,
      "低热": 6413,
      "全身性": 6414,
      "防治": 6415,
      "食性": 6416,
      "猪肉": 6417,
      "答复": 6418,
      "松子": 6419,
      "黑豆": 6420,
      "小米": 6421,
      "小麦": 6422,
      "此外": 6423,
      "戒烟": 6424,
      "几张": 6425,
      "正版": 6426,
      "模": 6427,
      "夜生活": 6428,
      "出新": 6429,
      "期待": 6430,
      "翻译": 6431,
      "嘴里": 6432,
      "溃疡": 6433,
      "嘴巴": 6434,
      "刷牙": 6435,
      "牙刷": 6436,
      "戳": 6437,
      "科": 6438,
      "化疗": 6439,
      "口腔溃疡": 6440,
      "口腔": 6441,
      "配": 6442,
      "棉签": 6443,
      "蘸": 6444,
      "创面": 6445,
      "温开水": 6446,
      "副作用": 6447,
      "复发性": 6448,
      "人群": 6449,
      "患病率": 6450,
      "周期性": 6451,
      "局限性": 6452,
      "自愈": 6453,
      "多见": 6454,
      "波及": 6455,
      "咽部": 6456,
      "粘膜": 6457,
      "病程": 6458,
      "延长": 6459,
      "数目": 6460,
      "缩短": 6461,
      "食": 6462,
      "溃疡性": 6463,
      "过敏反应": 6464,
      "常见病": 6465,
      "辛辣": 6466,
      "主要症状": 6467,
      "椭圆形": 6468,
      "单发": 6469,
      "自发": 6470,
      "浅": 6471,
      "边缘": 6472,
      "整齐": 6473,
      "纤维素": 6474,
      "天后": 6475,
      "转入": 6476,
      "发于": 6477,
      "青壮年": 6478,
      "多于": 6479,
      "发病": 6480,
      "舌": 6481,
      "牙龈": 6482,
      "孤立": 6483,
      "多处": 6484,
      "似": 6485,
      "样": 6486,
      "劳累": 6487,
      "迁延": 6488,
      "数年": 6489,
      "数十年": 6490,
      "前者": 6491,
      "舌苔": 6492,
      "淋巴结": 6493,
      "后者": 6494,
      "伴有": 6495,
      "手心": 6496,
      "多梦": 6497,
      "剥落": 6498,
      "免疫": 6499,
      "不良": 6500,
      "起居": 6501,
      "有节": 6502,
      "多样化": 6503,
      "多食": 6504,
      "煎炸": 6505,
      "房事": 6506,
      "切勿": 6507,
      "用心": 6508,
      "操劳": 6509,
      "失常": 6510,
      "而致": 6511,
      "自治": 6512,
      "Ｃ": 6513,
      "粒": 6514,
      "９": 6515,
      "毫克": 6516,
      "金银花": 6517,
      "饮": 6518,
      "煎": 6519,
      "麦冬": 6520,
      "生地": 6521,
      "连服": 6522,
      "上药": 6523,
      "细末": 6524,
      "调匀": 6525,
      "贴": 6526,
      "脐": 6527,
      "虚实": 6528,
      "搽": 6529,
      "本方": 6530,
      "主治": 6531,
      "白萝卜": 6532,
      "喝汤": 6533,
      "芯": 6534,
      "绿豆": 6535,
      "毫升": 6536,
      "浓茶": 6537,
      "漱口": 6538,
      "误诊": 6539,
      "慎用": 6540,
      "表面": 6541,
      "乳头": 6542,
      "突起": 6543,
      "菜花": 6544,
      "底部": 6545,
      "硬块": 6546,
      "晒太阳": 6547,
      "好几年": 6548,
      "每到": 6549,
      "滋养": 6550,
      "胡萝卜": 6551,
      "玫瑰": 6552,
      "花瓣": 6553,
      "浸入": 6554,
      "适用": 6555,
      "过敏性": 6556,
      "邓": 6557,
      "37": 6558,
      "加盖": 6559,
      "纱布": 6560,
      "滋润": 6561,
      "蛋清": 6562,
      "果汁": 6563,
      "桃": 6564,
      "西瓜": 6565,
      "香蕉": 6566,
      "养分": 6567,
      "芦荟": 6568,
      "补水": 6569,
      "60%": 6570,
      "70%": 6571,
      "人称": 6572,
      "40%": 6573,
      "年代": 6574,
      "科学家": 6575,
      "全球": 6576,
      "频率": 6577,
      "确切": 6578,
      "暴露": 6579,
      "化学": 6580,
      "看上去": 6581,
      "紧绷": 6582,
      "条纹": 6583,
      "脂质": 6584,
      "积聚": 6585,
      "诱因": 6586,
      "当人": 6587,
      "越高": 6588,
      "抗过敏": 6589,
      "绝经": 6590,
      "若干年": 6591,
      "发出": 6592,
      "缺水": 6593,
      "警报": 6594,
      "室友": 6595,
      "擦": 6596,
      "跳舞": 6597,
      "涂上": 6598,
      "带走": 6599,
      "生活习惯": 6600,
      "两到": 6601,
      "洗涤": 6602,
      "肥皂": 6603,
      "洗澡": 6604,
      "蒸发": 6605,
      "发痒": 6606,
      "过敏原": 6607,
      "化学品": 6608,
      "反过来": 6609,
      "年纪": 6610,
      "水份": 6611,
      "膜": 6612,
      "寒冬": 6613,
      "汗水": 6614,
      "抵抗力": 6615,
      "睡眠不足": 6616,
      "血液循环": 6617,
      "变差": 6618,
      "减肥": 6619,
      "偏食": 6620,
      "过高": 6621,
      "过热": 6622,
      "具": 6623,
      "香皂": 6624,
      "清洁剂": 6625,
      "雌激素": 6626,
      "呈现出": 6627,
      "过后": 6628,
      "项": 6629,
      "尽早": 6630,
      "采取措施": 6631,
      "瘙痒": 6632,
      "不太": 6633,
      "避开": 6634,
      "空调": 6635,
      "湿度": 6636,
      "细小": 6637,
      "天气晴朗": 6638,
      "日照": 6639,
      "厚厚的": 6640,
      "云层": 6641,
      "遮挡": 6642,
      "气候变化": 6643,
      "汗液": 6644,
      "关键在于": 6645,
      "真皮": 6646,
      "外侧": 6647,
      "一层": 6648,
      "迟缓": 6649,
      "温": 6650,
      "现代人": 6651,
      "西红柿": 6652,
      "抗衰老": 6653,
      "失水": 6654,
      "出水": 6655,
      "秋天": 6656,
      "碱性": 6657,
      "疗效": 6658,
      "秘方": 6659,
      "一盆": 6660,
      "别忘了": 6661,
      "抹": 6662,
      "同居": 6663,
      "范畴": 6664,
      "无罪": 6665,
      "过分": 6666,
      "凡事": 6667,
      "性关系": 6668,
      "男女": 6669,
      "分手": 6670,
      "心爱": 6671,
      "勉强": 6672,
      "肉体": 6673,
      "常常": 6674,
      "适得其反": 6675,
      "不愿": 6676,
      "处女": 6677,
      "不肯": 6678,
      "婚后": 6679,
      "第三项": 6680,
      "离婚": 6681,
      "性行为": 6682,
      "丈夫": 6683,
      "婚姻": 6684,
      "两倍": 6685,
      "嫁给": 6686,
      "美满": 6687,
      "回忆": 6688,
      "往事": 6689,
      "比不上": 6690,
      "情人": 6691,
      "very": 6692,
      "level": 6693,
      "it": 6694,
      "right": 6695,
      "to": 6696,
      "work": 6697,
      "an": 6698,
      "康复训练": 6699,
      "残疾人": 6700,
      "＂": 6701,
      "权力": 6702,
      "农村": 6703,
      "太阳能": 6704,
      "热水器": 6705,
      "村民": 6706,
      "售后服务": 6707,
      "淋浴": 6708,
      "时能": 6709,
      "室外": 6710,
      "早晨": 6711,
      "情人节": 6712,
      "追溯到": 6713,
      "来源于": 6714,
      "鸟类": 6715,
      "风俗": 6716,
      "盒子": 6717,
      "抽到": 6718,
      "节日": 6719,
      "纪念": 6720,
      "基督教": 6721,
      "古罗马": 6722,
      "传教士": 6723,
      "圣": 6724,
      "冒险": 6725,
      "传播": 6726,
      "被捕": 6727,
      "入狱": 6728,
      "感动": 6729,
      "封信": 6730,
      "处死": 6731,
      "墓": 6732,
      "一棵": 6733,
      "小伙子": 6734,
      "明信片": 6735,
      "精美": 6736,
      "工艺品": 6737,
      "鲜花": 6738,
      "爱人": 6739,
      "爱意": 6740,
      "送给": 6741,
      "一盒": 6742,
      "通俗": 6743,
      "苦涩": 6744,
      "相互": 6745,
      "夹杂": 6746,
      "快感": 6747,
      "仿佛": 6748,
      "温暖": 6749,
      "体能": 6750,
      "祝愿": 6751,
      "祝福": 6752,
      "专利": 6753,
      "噢": 6754,
      "某位": 6755,
      "表白": 6756,
      "33": 6757,
      "高层": 6758,
      "景观": 6759,
      "开阔": 6760,
      "噪音": 6761,
      "废气": 6762,
      "下雨": 6763,
      "漏水": 6764,
      "间隔": 6765,
      "Z": 6766,
      "元宝": 6767,
      "狮子": 6768,
      "35": 6769,
      "俩": 6770,
      "哪儿": 6771,
      "电话号码": 6772,
      "语音": 6773,
      "某某": 6774,
      "起诉": 6775,
      "官司": 6776,
      "诈骗": 6777,
      "术": 6778,
      "香港": 6779,
      "xxxx": 6780,
      "位数": 6781,
      "手机号码": 6782,
      "编": 6783,
      "国际足联": 6784,
      "足球队": 6785,
      "纳入": 6786,
      "云南": 6787,
      "队": 6788,
      "赢": 6789,
      "发觉": 6790,
      "说不出": 6791,
      "脑袋": 6792,
      "清醒": 6793,
      "灵魂": 6794,
      "体外": 6795,
      "胳膊": 6796,
      "不对劲": 6797,
      "推": 6798,
      "那会": 6799,
      "学医": 6800,
      "暂停": 6801,
      "证": 6802,
      "受压": 6803,
      "月初": 6804,
      "特地": 6805,
      "相片": 6806,
      "印象": 6807,
      "面对面": 6808,
      "说些": 6809,
      "最美": 6810,
      "相见": 6811,
      "该不该": 6812,
      "嫌弃": 6813,
      "苦恼": 6814,
      "害怕": 6815,
      "帮帮": 6816,
      "刚看": 6817,
      "背叛": 6818,
      "比较严重": 6819,
      "不介意": 6820,
      "一口气": 6821,
      "介意": 6822,
      "正整数": 6823,
      "平均数": 6824,
      "17": 6825,
      "留言": 6826,
      "中央": 6827,
      "泽": 6828,
      "VS": 6829,
      "纽伦堡": 6830,
      "雅典": 6831,
      "汉堡": 6832,
      "自觉": 6833,
      "开心": 6834,
      "搬家": 6835,
      "西安": 6836,
      "搬迁": 6837,
      "总部": 6838,
      "设在": 6839,
      "英国": 6840,
      "2001": 6841,
      "遍布": 6842,
      "顺其自然": 6843,
      "踩": 6844,
      "想得到": 6845,
      "看法": 6846,
      "雷": 6847,
      "凑": 6848,
      "唯": 6849,
      "原文中": 6850,
      "陆": 6851,
      "帖子": 6852,
      "追加": 6853,
      "变态": 6854,
      "用到": 6855,
      "在场": 6856,
      "蜀山": 6857,
      "飞鸟": 6858,
      "月光": 6859,
      "参考": 6860,
      "攻略": 6861,
      "电子书": 6862,
      "起家": 6863,
      "偶有": 6864,
      "一声": 6865,
      "听取": 6866,
      "敏": 6867,
      "粉红": 6868,
      "之前": 6869,
      "发过": 6870,
      "帖": 6871,
      "MB": 6872,
      "85": 6873,
      "永远": 6874,
      "开玩笑": 6875,
      "发现自己": 6876,
      "在乎": 6877,
      "一人": 6878,
      "言行": 6879,
      "小妹": 6880,
      "不该": 6881,
      "总想": 6882,
      "谈不上": 6883,
      "计较": 6884,
      "坦然": 6885,
      "露出": 6886,
      "十足": 6887,
      "明知": 6888,
      "透露": 6889,
      "秘密": 6890,
      "随意": 6891,
      "世人": 6892,
      "88": 6893,
      "越过": 6894,
      "其他人": 6895,
      "Ｒ": 6896,
      "Ｍ": 6897,
      "上限": 6898,
      "楼主": 6899,
      "老区": 6900,
      "50%": 6901,
      "变身": 6902,
      "下限": 6903,
      "改了": 6904,
      "改用": 6905,
      "升值": 6906,
      "贬值": 6907,
      "风暴": 6908,
      "保值": 6909,
      "总而言之": 6910,
      "变现": 6911,
      "成交": 6912,
      "不远": 6913,
      "支架": 6914,
      "冠状动脉": 6915,
      "粥样": 6916,
      "缺血性": 6917,
      "冠脉": 6918,
      "硬化": 6919,
      "心肌缺血": 6920,
      "常见疾病": 6921,
      "危险": 6922,
      "糖尿病": 6923,
      "吸烟": 6924,
      "高脂血症": 6925,
      "肥胖": 6926,
      "沉着": 6927,
      "管腔": 6928,
      "心绞痛": 6929,
      "外科手术": 6930,
      "激光": 6931,
      "心肌": 6932,
      "回顾": 6933,
      "1967": 6934,
      "静脉": 6935,
      "奠定": 6936,
      "1974": 6937,
      "郭": 6938,
      "率先": 6939,
      "开展": 6940,
      "辅助": 6941,
      "血栓": 6942,
      "靶": 6943,
      "住院": 6944,
      "较长": 6945,
      "跳动": 6946,
      "无需": 6947,
      "心功能": 6948,
      "较差": 6949,
      "此项": 6950,
      "尚有": 6951,
      "普及": 6952,
      "1987": 6953,
      "巨大": 6954,
      "挑战": 6955,
      "微创": 6956,
      "显现": 6957,
      "切口": 6958,
      "近年来": 6959,
      "杂交": 6960,
      "适于": 6961,
      "造影": 6962,
      "主干": 6963,
      "高位": 6964,
      "远端": 6965,
      "通畅": 6966,
      "1.5": 6967,
      "mm": 6968,
      "穿刺": 6969,
      "术后": 6970,
      "心肌梗死": 6971,
      "溶栓": 6972,
      "动脉": 6973,
      "起源": 6974,
      "弥漫性": 6975,
      "心衰": 6976,
      "不全": 6977,
      "低下": 6978,
      "伴": 6979,
      "肾功能": 6980,
      "移植": 6981,
      "人造": 6982,
      "远期": 6983,
      "缓解": 6984,
      "90%": 6985,
      "生存率": 6986,
      "95%": 6987,
      "闭塞": 6988,
      "进展": 6989,
      "创伤": 6990,
      "特定": 6991,
      "死亡率": 6992,
      "仅": 6993,
      "10%": 6994,
      "不良反应": 6995,
      "高危": 6996,
      "导管": 6997,
      "相近": 6998,
      "受累": 6999,
      "单一": 7000,
      "局限": 7001,
      "受损": 7002,
      "结": 7003,
      "各种因素": 7004,
      "本着": 7005,
      "内科": 7006,
      "放置": 7007,
      "见到": 7008,
      "外科": 7009,
      "制定": 7010,
      "日后": 7011,
      "恒定": 7012,
      "既有": 7013,
      "必定": 7014,
      "血流": 7015,
      "此种": 7016,
      "棘手": 7017,
      "综上所述": 7018,
      "着想": 7019,
      "牢记": 7020,
      "宗旨": 7021,
      "手脚": 7022,
      "全套": 7023,
      "27": 7024,
      "直肠": 7025,
      "脱垂": 7026,
      "益气": 7027,
      "黄芪": 7028,
      "味": 7029,
      "600": 7030,
      "取汁": 7031,
      "药液": 7032,
      "3000": 7033,
      "2500": 7034,
      "置于": 7035,
      "坐浴": 7036,
      "补气": 7037,
      "涩": 7038,
      "BIOS": 7039,
      "没错": 7040,
      "字样": 7041,
      "改成": 7042,
      "改": 7043,
      "方向键": 7044,
      "First": 7045,
      "Page": 7046,
      "液晶": 7047,
      "显示屏": 7048,
      "亮点": 7049,
      "外力": 7050,
      "荆州": 7051,
      "三国": 7052,
      "襄阳": 7053,
      "中原": 7054,
      "洛阳": 7055,
      "开封": 7056,
      "直通": 7057,
      "一是": 7058,
      "长江": 7059,
      "刘备": 7060,
      "一行": 7061,
      "这条": 7062,
      "二是": 7063,
      "水道": 7064,
      "路线": 7065,
      "当年": 7066,
      "顶点": 7067,
      "人类": 7068,
      "繁华": 7069,
      "三国演义": 7070,
      "两处": 7071,
      "骑": 7072,
      "东吴": 7073,
      "借": 7074,
      "曹操": 7075,
      "手中": 7076,
      "这才": 7077,
      "所说": 7078,
      "落后": 7079,
      "懂得": 7080,
      "坐": 7081,
      "抬头": 7082,
      "走路": 7083,
      "出现异常": 7084,
      "脑部": 7085,
      "脑电图": 7086,
      "抗癫痫": 7087,
      "不佳": 7088,
      "引进": 7089,
      "万能": 7090,
      "饰品": 7091,
      "断": 7092,
      "一楼": 7093,
      "坊": 7094,
      "吉祥": 7095,
      "中路": 7096,
      "珠宝": 7097,
      "深圳市": 7098,
      "2006": 7099,
      "营业时间": 7100,
      "00": 7101,
      "东门": 7102,
      "步行街": 7103,
      "有用": 7104,
      "钟表": 7105,
      "城里": 7106,
      "average": 7107,
      "people": 7108,
      "普通人": 7109,
      "普遍": 7110,
      "反义词": 7111,
      "一群": 7112,
      "单数": 7113,
      "复数": 7114,
      "开车": 7115,
      "出租车": 7116,
      "司机": 7117,
      "行车": 7118,
      "英雄": 7119,
      "行使": 7120,
      "交通规则": 7121,
      "边上": 7122,
      "行人": 7123,
      "轮胎": 7124,
      "自检": 7125,
      "于是": 7126,
      "内存条": 7127,
      "插槽": 7128,
      "晕": 7129,
      "各异": 7130,
      "各式各样": 7131,
      "时常": 7132,
      "损坏": 7133,
      "重启": 7134,
      "死机": 7135,
      "多方面": 7136,
      "CMOS": 7137,
      "出厂": 7138,
      "接触不良": 7139,
      "异物": 7140,
      "松动": 7141,
      "牢固": 7142,
      "变形": 7143,
      "失效": 7144,
      "橡皮": 7145,
      "擦拭": 7146,
      "一遍": 7147,
      "仔细观察": 7148,
      "工具": 7149,
      "兼容": 7150,
      "容量": 7151,
      "芯片": 7152,
      "判断": 7153,
      "怀疑": 7154,
      "步": 7155,
      "重症": 7156,
      "肌无力": 7157,
      "拖延": 7158,
      "登入": 7159,
      "移民": 7160,
      "一点儿": 7161,
      "锦标": 7162,
      "山路": 7163,
      "SP": 7164,
      "这车": 7165,
      "弯": 7166,
      "总体": 7167,
      "中后期": 7168,
      "起步": 7169,
      "一辆车": 7170,
      "后期": 7171,
      "抗衡": 7172,
      "改装": 7173,
      "照样": 7174,
      "拿下": 7175,
      "King": 7176,
      "车队": 7177,
      "开除": 7178,
      "悬崖": 7179,
      "实": 7180,
      "神奇": 7181,
      "杰克逊": 7182,
      "电影": 7183,
      "降价": 7184,
      "款": 7185,
      "售价": 7186,
      "同一时间": 7187,
      "刚出": 7188,
      "价格比": 7189,
      "6000": 7190,
      "一分钱": 7191,
      "玩游戏": 7192,
      "卡卡": 7193,
      "巴黎": 7194,
      "外省": 7195,
      "所学": 7196,
      "公立": 7197,
      "好些": 7198,
      "文凭": 7199,
      "大使馆": 7200,
      "一大": 7201,
      "产业": 7202,
      "诺贝尔奖": 7203,
      "尼斯": 7204,
      "马赛": 7205,
      "里昂": 7206,
      "里尔": 7207,
      "战斗": 7208,
      "咽喉炎": 7209,
      "吃水果": 7210,
      "劳逸结合": 7211,
      "急性期": 7212,
      "卧床": 7213,
      "粉尘": 7214,
      "口罩": 7215,
      "酒": 7216,
      "口腔卫生": 7217,
      "病菌": 7218,
      "冬": 7219,
      "柠檬": 7220,
      "甘蔗": 7221,
      "清热": 7222,
      "室内空气": 7223,
      "流通": 7224,
      "长时间": 7225,
      "中度": 7226,
      "糜烂": 7227,
      "会变": 7228,
      "重度": 7229,
      "查出": 7230,
      "塞": 7231,
      "脓": 7232,
      "炎症": 7233,
      "盒": 7234,
      "异味": 7235,
      "肥大": 7236,
      "衣原体": 7237,
      "支原体": 7238,
      "时才": 7239,
      "我前": 7240,
      "刚买": 7241,
      "鞋": 7242,
      "涨": 7243,
      "白酒": 7244,
      "一团": 7245,
      "皮革": 7246,
      "研究员": 7247,
      "皮鞋": 7248,
      "定型": 7249,
      "两块": 7250,
      "缝合": 7251,
      "脚跟": 7252,
      "脚趾": 7253,
      "朝阳": 7254,
      "大夫": 7255,
      "鞋子": 7256,
      "拇指": 7257,
      "外翻": 7258,
      "不慎": 7259,
      "买到": 7260,
      "磨": 7261,
      "业内人士": 7262,
      "供参考": 7263,
      "面霜": 7264,
      "软化": 7265,
      "捂": 7266,
      "变软": 7267,
      "子": 7268,
      "物体": 7269,
      "几遍": 7270,
      "原理": 7271,
      "可行性": 7272,
      "寿命": 7273,
      "几款": 7274,
      "专": 7275,
      "研制": 7276,
      "高跟鞋": 7277,
      "附着": 7278,
      "脚部": 7279,
      "酸痛": 7280,
      "蔗糖": 7281,
      "卵磷脂": 7282,
      "系列": 7283,
      "均衡": 7284,
      "优质": 7285,
      "脂肪酸": 7286,
      "叶酸": 7287,
      "矿物质": 7288,
      "新西兰": 7289,
      "严密": 7290,
      "确保": 7291,
      "三层": 7292,
      "高科技": 7293,
      "纯度": 7294,
      "氮气": 7295,
      "类别": 7296,
      "幼儿": 7297,
      "摘要": 7298,
      "研究成果": 7299,
      "婴幼儿": 7300,
      "智力": 7301,
      "委员会": 7302,
      "食谱": 7303,
      "规格": 7304,
      "袋": 7305,
      "表格": 7306,
      "38.5": 7307,
      "天津": 7308,
      "松江": 7309,
      "高尔夫": 7310,
      "五月": 7311,
      "开业": 7312,
      "开发商": 7313,
      "交界处": 7314,
      "开场": 7315,
      "暑期": 7316,
      "放假": 7317,
      "一到": 7318,
      "面具": 7319,
      "一轮": 7320,
      "做爱": 7321,
      "气氛": 7322,
      "西餐": 7323,
      "作法": 7324,
      "那本": 7325,
      "一本": 7326,
      "沙拉": 7327,
      "主菜": 7328,
      "甜点": 7329,
      "茶": 7330,
      "le": 7331,
      "main": 7332,
      "不用说": 7333,
      "甜品": 7334,
      "洋葱": 7335,
      "黄油": 7336,
      "黑胡椒": 7337,
      "红酒": 7338,
      "鸡汤": 7339,
      "加盐": 7340,
      "菠萝": 7341,
      "熟": 7342,
      "沙拉酱": 7343,
      "脊": 7344,
      "切片": 7345,
      "面包": 7346,
      "馒头": 7347,
      "代替": 7348,
      "三明治": 7349,
      "键盘": 7350,
      "蘑菇": 7351,
      "ok": 7352,
      "烤": 7353,
      "虾": 7354,
      "打碎": 7355,
      "泥": 7356,
      "馅": 7357,
      "填入": 7358,
      "烤箱": 7359,
      "配菜": 7360,
      "丝": 7361,
      "金黄色": 7362,
      "搭": 7363,
      "一刀": 7364,
      "切断": 7365,
      "趴在": 7366,
      "with": 7367,
      "整理": 7368,
      "挑": 7369,
      "先说": 7370,
      "说个": 7371,
      "无所谓": 7372,
      "胡椒粉": 7373,
      "白醋": 7374,
      "罐头": 7375,
      "蒸熟": 7376,
      "去皮": 7377,
      "奶油": 7378,
      "低脂肪": 7379,
      "茄子": 7380,
      "努": 7381,
      "罗勒": 7382,
      "番茄酱": 7383,
      "切块": 7384,
      "小火": 7385,
      "没听说过": 7386,
      "南瓜": 7387,
      "红薯": 7388,
      "大块": 7389,
      "粉": 7390,
      "呦": 7391,
      "油菜": 7392,
      "倒入": 7393,
      "如同": 7394,
      "狠": 7395,
      "绿": 7396,
      "都行": 7397,
      "朵": 7398,
      "浇": 7399,
      "低热量": 7400,
      "醋": 7401,
      "橙子": 7402,
      "制冷": 7403,
      "不爱": 7404,
      "配料": 7405,
      "丁": 7406,
      "青椒": 7407,
      "火腿": 7408,
      "香草": 7409,
      "棍": 7410,
      "之中": 7411,
      "不然": 7412,
      "液体": 7413,
      "勺子": 7414,
      "凉": 7415,
      "机": 7416,
      "冷冻": 7417,
      "到时候": 7418,
      "冰淇淋": 7419,
      "蒸": 7420,
      "球状": 7421,
      "大拇指": 7422,
      "指尖": 7423,
      "西式": 7424,
      "炒饭": 7425,
      "一番": 7426,
      "排": 7427,
      "色": 7428,
      "透": 7429,
      "燃烧": 7430,
      "慌": 7431,
      "一会儿": 7432,
      "熄灭": 7433,
      "剩": 7434,
      "or": 7435,
      "You": 7436,
      "want": 7437,
      "know": 7438,
      "ome": 7439,
      "more": 7440,
      "for": 7441,
      "牛排": 7442,
      "芥末": 7443,
      "你别": 7444,
      "鉴别": 7445,
      "手掌": 7446,
      "辣椒粉": 7447,
      "扒": 7448,
      "咖喱": 7449,
      "加一点": 7450,
      "香油": 7451,
      "一首歌": 7452,
      "歌": 7453,
      "唱": 7454,
      "星光": 7455,
      "我心": 7456,
      "歌手": 7457,
      "银幕": 7458,
      "世间": 7459,
      "重叠": 7460,
      "面孔": 7461,
      "默默": 7462,
      "六岁": 7463,
      "喜剧": 7464,
      "奖": 7465,
      "滴": 7466,
      "泪": 7467,
      "鼓掌": 7468,
      "终于": 7469,
      "真理": 7470,
      "时光": 7471,
      "光": 7472,
      "影像": 7473,
      "动人": 7474,
      "情感": 7475,
      "直至": 7476,
      "某日": 7477,
      "留着": 7478,
      "迷人": 7479,
      "片段": 7480,
      "珍惜": 7481,
      "眼前": 7482,
      "两地": 7483,
      "始终": 7484,
      "遇上": 7485,
      "Y": 7486,
      "阳光": 7487,
      "般": 7488,
      "笑容": 7489,
      "体贴": 7490,
      "照顾": 7491,
      "欺骗": 7492,
      "做手术": 7493,
      "隐瞒": 7494,
      "想起": 7495,
      "对不起": 7496,
      "亲爱": 7497,
      "谈恋爱": 7498,
      "投入": 7499,
      "难过": 7500,
      "考虑一下": 7501,
      "任": 7502,
      "深深": 7503,
      "瞒": 7504,
      "愧疚": 7505,
      "房贷": 7506,
      "信用": 7507,
      "商量": 7508,
      "面色": 7509,
      "气喘": 7510,
      "虚寒": 7511,
      "减": 7512,
      "运算": 7513,
      "字母": 7514,
      "多项式": 7515,
      "统称": 7516,
      "x2": 7517,
      "2a": 7518,
      "3x": 7519,
      "2n": 7520,
      "公务员": 7521,
      "报考": 7522,
      "分辨率": 7523,
      "篇": 7524,
      "养": 7525,
      "｀": 7526,
      "缺点": 7527,
      "系": 7528,
      "精": 7529,
      "打人": 7530,
      "战术": 7531,
      "战": 7532,
      "何不": 7533,
      "水晶": 7534,
      "压制": 7535,
      "威力": 7536,
      "主人": 7537,
      "15000": 7538,
      "反弹": 7539,
      "几率": 7540,
      "五种": 7541,
      "4000": 7542,
      "月工资": 7543,
      "公章": 7544,
      "保险公司": 7545,
      "十字": 7546,
      "没钱": 7547,
      "命中": 7548,
      "1.0": 7549,
      "test": 7550,
      "in": 7551,
      "I": 7552,
      "from": 7553,
      "hasa": 7554,
      "And": 7555,
      "虚拟": 7556,
      "驱动": 7557,
      "装置": 7558,
      "超导": 7559,
      "庞大": 7560,
      "证实": 7561,
      "全世界": 7562,
      "BBC": 7563,
      "伊朗": 7564,
      "在世界上": 7565,
      "多人": 7566,
      "举止": 7567,
      "电器": 7568,
      "欧美": 7569,
      "年轻人": 7570,
      "批发": 7571,
      "灰": 7572,
      "花纹": 7573,
      "亚": 7574,
      "眼": 7575,
      "老头": 7576,
      "离": 7577,
      "极力": 7578,
      "岁数": 7579,
      "再有": 7580,
      "军官": 7581,
      "少将": 7582,
      "军衔": 7583,
      "不怎么样": 7584,
      "开个": 7585,
      "管": 7586,
      "命运": 7587,
      "原谅": 7588,
      "后悔": 7589,
      "欣喜": 7590,
      "激动": 7591,
      "思念": 7592,
      "清晨": 7593,
      "蜗牛": 7594,
      "沿着": 7595,
      "树干": 7596,
      "爬": 7597,
      "夜间": 7598,
      "到达": 7599,
      "透支": 7600,
      "付费": 7601,
      "工行": 7602,
      "赋": 7603,
      "辩证": 7604,
      "大全": 7605,
      "大成": 7606,
      "∈": 7607,
      "R": 7608,
      "2x": 7609,
      "≥": 7610,
      "可知": 7611,
      "∴": 7612,
      "频道": 7613,
      "收藏夹": 7614,
      "登录": 7615,
      "诸如": 7616,
      "赌": 7617,
      "星际": 7618,
      "改写": 7619,
      "ai": 7620,
      "写过": 7621,
      "想象力": 7622,
      "杀伤力": 7623,
      "杀手": 7624,
      "对抗": 7625,
      "废话": 7626,
      "附件": 7627,
      "备份": 7628,
      "q": 7629,
      "嘿嘿": 7630,
      "109": 7631,
      "110": 7632,
      "炫耀": 7633,
      "AI": 7634,
      "dll": 7635,
      "解压": 7636,
      "放个": 7637,
      "语句": 7638,
      "台下": 7639,
      "n": 7640,
      "主程序": 7641,
      "写得": 7642,
      "总算": 7643,
      "暴雪": 7644,
      "编辑器": 7645,
      "农民": 7646,
      "改动": 7647,
      "筋": 7648,
      "第一段": 7649,
      "III": 7650,
      "name": 7651,
      "注释": 7652,
      "id": 7653,
      "tart": 7654,
      "off": 7655,
      "造": 7656,
      "min": 7657,
      "0.1": 7658,
      "秒钟": 7659,
      "啥意思": 7660,
      "max": 7661,
      "high": 7662,
      "基地": 7663,
      "以此类推": 7664,
      "多线程": 7665,
      "这段": 7666,
      "编程语言": 7667,
      "money": 7668,
      "往下": 7669,
      "总的来说": 7670,
      "两句": 7671,
      "一下子": 7672,
      "意愿": 7673,
      "今后": 7674,
      "并行": 7675,
      "防守": 7676,
      "train": 7677,
      "兵": 7678,
      "进攻": 7679,
      "add": 7680,
      "队伍": 7681,
      "你家": 7682,
      "do": 7683,
      "一段": 7684,
      "全过程": 7685,
      "勾": 7686,
      "合乎": 7687,
      "语法": 7688,
      "error": 7689,
      "mesage": 7690,
      "上级": 7691,
      "齿轮": 7692,
      "bug": 7693,
      "安心": 7694,
      "替代": 7695,
      "烦人": 7696,
      "好心": 7697,
      "use": 7698,
      "map": 7699,
      "一幅": 7700,
      "top": 7701,
      "机制": 7702,
      "建造": 7703,
      "在内": 7704,
      "攻": 7705,
      "发呆": 7706,
      "如何是好": 7707,
      "挨打": 7708,
      "占据": 7709,
      "切实": 7710,
      "前行": 7711,
      "楚": 7712,
      "关": 7713,
      "精力": 7714,
      "编译": 7715,
      "歌曲": 7716,
      "杭州": 7717,
      "肝病": 7718,
      "小三阳": 7719,
      "同济": 7720,
      "杭州市": 7721,
      "旗舰": 7722,
      "广场": 7723,
      "魔王": 7724,
      "岭": 7725,
      "经验值": 7726,
      "一倍": 7727,
      "比较慢": 7728,
      "百": 7729,
      "防火墙": 7730,
      "张杰": 7731,
      "存档": 7732,
      "恶魔": 7733,
      "哪怕": 7734,
      "各位朋友": 7735,
      "拜年": 7736,
      "如意": 7737,
      "平安": 7738,
      "富贵": 7739,
      "有余": 7740,
      "新年快乐": 7741,
      "中锋": 7742,
      "卡住": 7743,
      "掌握": 7744,
      "时刻": 7745,
      "弹跳": 7746,
      "训练": 7747,
      "上涨": 7748,
      "蜜蜂": 7749,
      "个性": 7750,
      "性价比": 7751,
      "魅族": 7752,
      "华为": 7753,
      "荣耀": 7754,
      "千元": 7755,
      "红米": 7756,
      "最新": 7757,
      "配置": 7758,
      "Galaxy": 7759,
      "搭载": 7760,
      "处理器": 7761,
      "架构": 7762,
      "主频": 7763,
      "GPU": 7764,
      "big": 7765,
      "Procesing": 7766,
      "配上": 7767,
      "1300": 7768,
      "像素": 7769,
      "Android": 7770,
      "4.2": 7771,
      "机身": 7772,
      "厚度": 7773,
      "内置": 7774,
      "RAM": 7775,
      "寸": 7776,
      "Super": 7777,
      "材质": 7778,
      "一代": 7779,
      "抬": 7780,
      "鼓励": 7781,
      "动力": 7782,
      "不贵": 7783,
      "充电": 7784,
      "外形": 7785,
      "大力": 7786,
      "很火": 7787,
      "官网": 7788,
      "OPPO": 7789,
      "拍照": 7790,
      "HTC": 7791,
      "O": 7792,
      "∩": 7793,
      "索尼": 7794,
      "摩托": 7795,
      "三天": 7796,
      "屁": 7797,
      "放屁": 7798,
      "胀气": 7799,
      "多点": 7800,
      "排便": 7801,
      "掉线": 7802,
      "巨人": 7803,
      "靴子": 7804,
      "一米": 7805,
      "个子": 7806,
      "胖": 7807,
      "来往": 7808,
      "不怎么": 7809,
      "瘦": 7810,
      "老年": 7811,
      "交谈": 7812,
      "家庭环境": 7813,
      "顾及": 7814,
      "不至于": 7815,
      "走向": 7816,
      "H": 7817,
      "氢": 7818,
      "共用": 7819,
      "氧原子": 7820,
      "管理人员": 7821,
      "账户": 7822,
      "生产成本": 7823,
      "成本": 7824,
      "各项": 7825,
      "间接": 7826,
      "计入": 7827,
      "科目": 7828,
      "周岁": 7829,
      "法定": 7830,
      "1980": 7831,
      "总局": 7832,
      "财政部": 7833,
      "职工": 7834,
      "59": 7835,
      "67": 7836,
      "工作日": 7837,
      "一地": 7838,
      "料理": 7839,
      "配偶": 7840,
      "子女": 7841,
      "批准": 7842,
      "酌情": 7843,
      "一至": 7844,
      "婚": 7845,
      "远近": 7846,
      "自理": 7847,
      "最长": 7848,
      "中华人民共和国": 7849,
      "查阅": 7850,
      "XX": 7851,
      "市": 7852,
      "条例": 7853,
      "待遇": 7854,
      "男女双方": 7855,
      "可视": 7856,
      "探": 7857,
      "假期": 7858,
      "公": 7859,
      "休假": 7860,
      "发票": 7861,
      "淘宝网": 7862,
      "老板": 7863,
      "联": 7864,
      "诺基亚": 7865,
      "保修": 7866,
      "不解": 7867,
      "纳税人": 7868,
      "效用": 7869,
      "日期": 7870,
      "出场": 7871,
      "2009": 7872,
      "买入": 7873,
      "粉色": 7874,
      "女王": 7875,
      "PVP": 7876,
      "同级": 7877,
      "变白": 7878,
      "DJ": 7879,
      "商店": 7880,
      "工匠": 7881,
      "拉大": 7882,
      "非要": 7883,
      "蹲": 7884,
      "拉": 7885,
      "小节": 7886,
      "干涉": 7887,
      "好玩": 7888,
      "罢了": 7889,
      "作息": 7890,
      "按时": 7891,
      "早起": 7892,
      "冻结": 7893,
      "卖家": 7894,
      "违规": 7895,
      "店铺": 7896,
      "退回": 7897,
      "跳水": 7898,
      "下肢": 7899,
      "大小便": 7900,
      "失禁": 7901,
      "脊髓": 7902,
      "骨折": 7903,
      "及早": 7904,
      "站立": 7905,
      "体位": 7906,
      "低血压": 7907,
      "排泄": 7908,
      "泌尿系": 7909,
      "神经": 7910,
      "存款": 7911,
      "只求": 7912,
      "兼": 7913,
      "开放式": 7914,
      "花钱": 7915,
      "无处不在": 7916,
      "坐车": 7917,
      "碰": 7918,
      "地震": 7919,
      "概率": 7920,
      "非常低": 7921,
      "红利": 7922,
      "债券": 7923,
      "试验": 7924,
      "赞成": 7925,
      "进步": 7926,
      "君子": 7927,
      "变革": 7928,
      "替补": 7929,
      "主教练": 7930,
      "美元": 7931,
      "下跌": 7932,
      "底线": 7933,
      "大幅度": 7934,
      "多天": 7935,
      "许可证": 7936,
      "中应": 7937,
      "板块": 7938,
      "词": 7939,
      "词是": 7940,
      "比分": 7941,
      "∶": 7942,
      "战胜": 7943,
      "＞": 7944,
      "＜": 7945,
      "一队": 7946,
      "逆境": 7947,
      "送到": 7948,
      "发达": 7949,
      "排尿": 7950,
      "血尿": 7951,
      "消炎药": 7952,
      "不长": 7953,
      "粮": 7954,
      "皇家": 7955,
      "排石": 7956,
      "剂量": 7957,
      "成人": 7958,
      "喝水": 7959,
      "葡萄糖": 7960,
      "早日": 7961,
      "恢复健康": 7962,
      "tm": 7963,
      "GHz": 7964,
      "显存": 7965,
      "AMD": 7966,
      "512": 7967,
      "1G": 7968,
      "混混": 7969,
      "刚刚": 7970,
      "合格": 7971,
      "特": 7972,
      "夸张": 7973,
      "我哥": 7974,
      "内测": 7975,
      "2G": 7976,
      "但会": 7977,
      "不爽": 7978,
      "汗": 7979,
      "喊": 7980,
      "鬼子": 7981,
      "德军": 7982,
      "军": 7983,
      "冲锋": 7984,
      "二战": 7985,
      "美军": 7986,
      "突击": 7987,
      "袭击": 7988,
      "喜剧片": 7989,
      "抗日": 7990,
      "五年": 7991,
      "组装": 7992,
      "忽然": 7993,
      "用手": 7994,
      "大声": 7995,
      "弹簧": 7996,
      "共振": 7997,
      "其次": 7998,
      "绑": 7999,
      "噪声": 8000,
      "迁移": 8001,
      "派遣": 8002,
      "迁往": 8003,
      "接收": 8004,
      "心仪": 8005,
      "项目管理": 8006,
      "必要性": 8007,
      "实施": 8008,
      "人力": 8009,
      "资源管理": 8010,
      "采购": 8011,
      "人力资源": 8012,
      "致力于": 8013,
      "秉承": 8014,
      "一贯": 8015,
      "定位": 8016,
      "借用": 8017,
      "运营": 8018,
      "运作": 8019,
      "效率": 8020,
      "最大化": 8021,
      "效应": 8022,
      "技术手段": 8023,
      "调研": 8024,
      "流程": 8025,
      "编制": 8026,
      "编程": 8027,
      "辅导": 8028,
      "修正": 8029,
      "三大": 8030,
      "领域": 8031,
      "软件开发": 8032,
      "一线": 8033,
      "资讯": 8034,
      "多家": 8035,
      "协作": 8036,
      "兼容性": 8037,
      "速率": 8038,
      "十个月": 8039,
      "试用": 8040,
      "小勺": 8041,
      "喂食": 8042,
      "信心": 8043,
      "强迫": 8044,
      "条件反射": 8045,
      "嘴边": 8046,
      "拒绝": 8047,
      "勺": 8048,
      "摇头": 8049,
      "厌恶": 8050,
      "地用": 8051,
      "大哭": 8052,
      "一餐": 8053,
      "身心": 8054,
      "饥饿": 8055,
      "甜食": 8056,
      "辅食": 8057,
      "肉汤": 8058,
      "花样": 8059,
      "面食": 8060,
      "调换": 8061,
      "新奇": 8062,
      "多种类型": 8063,
      "饼干": 8064,
      "蛋糕": 8065,
      "应有": 8066,
      "心情愉快": 8067,
      "用餐": 8068,
      "常会": 8069,
      "一顿饭": 8070,
      "专心": 8071,
      "一口": 8072,
      "眼中": 8073,
      "关乎": 8074,
      "之争": 8075,
      "家中": 8076,
      "乖乖": 8077,
      "密不可分": 8078,
      "饿": 8079,
      "抓住": 8080,
      "弱点": 8081,
      "因应": 8082,
      "察觉": 8083,
      "避免出现": 8084,
      "零食": 8085,
      "吃零食": 8086,
      "吃不下": 8087,
      "一顿": 8088,
      "坐下": 8089,
      "排斥": 8090,
      "当作": 8091,
      "成就": 8092,
      "饮食习惯": 8093,
      "小孩子": 8094,
      "模仿": 8095,
      "极强": 8096,
      "遵守": 8097,
      "定时": 8098,
      "全家人": 8099,
      "一同": 8100,
      "餐": 8101,
      "定量": 8102,
      "一味": 8103,
      "活动量": 8104,
      "抗拒": 8105,
      "选购": 8106,
      "餐具": 8107,
      "替": 8108,
      "欲望": 8109,
      "如能": 8110,
      "取代": 8111,
      "米饭": 8112,
      "丰盛": 8113,
      "餐点": 8114,
      "买菜": 8115,
      "不但": 8116,
      "增添": 8117,
      "趣味性": 8118,
      "活泼": 8119,
      "消毒": 8120,
      "冷却": 8121,
      "乳酸": 8122,
      "搅": 8123,
      "胃肠炎": 8124,
      "痢疾": 8125,
      "止泻": 8126,
      "焦": 8127,
      "米汤": 8128,
      "大米": 8129,
      "过滤": 8130,
      "再加": 8131,
      "0.4": 8132,
      "捣碎": 8133,
      "熟透": 8134,
      "700": 8135,
      "纤维": 8136,
      "果胶": 8137,
      "淡": 8138,
      "茶水": 8139,
      "红茶": 8140,
      "内含": 8141,
      "咖啡因": 8142,
      "利尿": 8143,
      "杀菌": 8144,
      "消炎": 8145,
      "探讨": 8146,
      "复": 8147,
      "出口": 8148,
      "未经": 8149,
      "import": 8150,
      "本国": 8151,
      "商品": 8152,
      "退货": 8153,
      "结果表明": 8154,
      "宝贵": 8155,
      "不饱和": 8156,
      "陆地": 8157,
      "动植物": 8158,
      "名叫": 8159,
      "Ｈ": 8160,
      "营养物质": 8161,
      "鱼类": 8162,
      "\\": 8163,
      "贝类": 8164,
      "迄今": 8165,
      "淡水鱼": 8166,
      "不免": 8167,
      "鲑鱼": 8168,
      "万里": 8169,
      "南极": 8170,
      "所含": 8171,
      "脑细胞": 8172,
      "脑": 8173,
      "传导": 8174,
      "突触": 8175,
      "重大": 8176,
      "细胞膜": 8177,
      "延伸": 8178,
      "长出": 8179,
      "思维能力": 8180,
      "制剂": 8181,
      "此处": 8182,
      "所指": 8183,
      "所用": 8184,
      "鱼肝油": 8185,
      "降血脂": 8186,
      "优异": 8187,
      "甘油三酯": 8188,
      "高密度": 8189,
      "脂蛋白": 8190,
      "壁上": 8191,
      "沉积": 8192,
      "血小板": 8193,
      "延缓": 8194,
      "活性": 8195,
      "偏头痛": 8196,
      "复方": 8197,
      "降压": 8198,
      "有益于": 8199,
      "有意识": 8200,
      "有利于": 8201,
      "8%": 8202,
      "院": 8203,
      "私立": 8204,
      "路上": 8205,
      "两只": 8206,
      "逃走": 8207,
      "自然选择": 8208,
      "诛仙": 8209,
      "右下角": 8210,
      "气血": 8211,
      "魔力": 8212,
      "幻想": 8213,
      "评价": 8214,
      "区里": 8215,
      "小区": 8216,
      "代理商": 8217,
      "目光": 8218,
      "网游": 8219,
      "长远": 8220,
      "不难": 8221,
      "抖": 8222,
      "宋朝": 8223,
      "宋江": 8224,
      "言": 8225,
      "雄": 8226,
      "无人": 8227,
      "略": 8228,
      "玩法": 8229,
      "京师": 8230,
      "之地": 8231,
      "扁": 8232,
      "抖动": 8233,
      "姿势": 8234,
      "扔": 8235,
      "动作": 8236,
      "器具": 8237,
      "颇": 8238,
      "鸡": 8239,
      "上架": 8240,
      "汉族": 8241,
      "盛行": 8242,
      "原材料": 8243,
      "分类": 8244,
      "轴": 8245,
      "发声": 8246,
      "轮": 8247,
      "凡是": 8248,
      "最多": 8249,
      "贯穿": 8250,
      "尺寸": 8251,
      "公分": 8252,
      "过大": 8253,
      "腰": 8254,
      "相": 8255,
      "组合成": 8256,
      "科学技术": 8257,
      "橡胶": 8258,
      "塑料": 8259,
      "更长": 8260,
      "无声": 8261,
      "灯光": 8262,
      "旋转": 8263,
      "钩": 8264,
      "通关": 8265,
      "睡得": 8266,
      "安稳": 8267,
      "被子": 8268,
      "跟上": 8269,
      "着凉": 8270,
      "打牌": 8271,
      "记不住": 8272,
      "诀窍": 8273,
      "无穷的": 8274,
      "午睡": 8275,
      "一名": 8276,
      "宿舍": 8277,
      "中午": 8278,
      "做作业": 8279,
      "睡午觉": 8280,
      "两点": 8281,
      "做梦": 8282,
      "醒": 8283,
      "叫醒": 8284,
      "梦境": 8285,
      "同一个": 8286,
      "睡醒": 8287,
      "累": 8288,
      "浑身": 8289,
      "无力": 8290,
      "逃": 8291,
      "充斥": 8292,
      "意志": 8293,
      "中断": 8294,
      "切换": 8295,
      "相反": 8296,
      "换成": 8297,
      "学说": 8298,
      "渴望": 8299,
      "地说": 8300,
      "植物": 8301,
      "土": 8302,
      "根系": 8303,
      "组件": 8304,
      "数据传输": 8305,
      "关联": 8306,
      "选中": 8307,
      "按着": 8308,
      "Shift": 8309,
      "疼": 8310,
      "昨天晚上": 8311,
      "左腿": 8312,
      "经历": 8313,
      "测量": 8314,
      "缺钙": 8315,
      "两岁": 8316,
      "钙片": 8317,
      "胸腔": 8318,
      "胸痛": 8319,
      "胸部": 8320,
      "疾患": 8321,
      "增强体质": 8322,
      "抗病": 8323,
      "体育锻炼": 8324,
      "太极拳": 8325,
      "引流": 8326,
      "再次出现": 8327,
      "洁面": 8328,
      "依次": 8329,
      "爽肤水": 8330,
      "乳液": 8331,
      "防晒": 8332,
      "自制": 8333,
      "厚重": 8334,
      "买卖": 8335,
      "联合": 8336,
      "历": 8337,
      "删": 8338,
      "亏了": 8339,
      "玩玩": 8340,
      "历史记录": 8341,
      "证券公司": 8342,
      "坡": 8343,
      "委屈": 8344,
      "旅馆": 8345,
      "客栈": 8346,
      "马尾": 8347,
      "十里": 8348,
      "海鲜": 8349,
      "景色": 8350,
      "沙滩": 8351,
      "广东": 8352,
      "日出": 8353,
      "日落": 8354,
      "南海": 8355,
      "一号": 8356,
      "大妈": 8357,
      "大海": 8358,
      "清明": 8359,
      "死者": 8360,
      "从小": 8361,
      "误会": 8362,
      "屁股": 8363,
      "起初": 8364,
      "派": 8365,
      "老爸": 8366,
      "难题": 8367,
      "抽": 8368,
      "戒": 8369,
      "认清": 8370,
      "下定决心": 8371,
      "加班": 8372,
      "烦": 8373,
      "太累": 8374,
      "恰到好处": 8375,
      "导航": 8376,
      "栏": 8377,
      "醒目": 8378,
      "大字": 8379,
      "☆": 8380,
      "这篇": 8381,
      "音效": 8382,
      "喇叭": 8383,
      "听见": 8384,
      "声卡": 8385,
      "问号": 8386,
      "感叹号": 8387,
      "爱过": 8388,
      "好感": 8389,
      "个人资料": 8390,
      "血统": 8391,
      "微软公司": 8392,
      "首席": 8393,
      "设计师": 8394,
      "商业": 8395,
      "互联网": 8396,
      "领导者": 8397,
      "截止": 8398,
      "亿美元": 8399,
      "78": 8400,
      "总数": 8401,
      "000": 8402,
      "1955": 8403,
      "西雅图": 8404,
      "长大": 8405,
      "William": 8406,
      "律师": 8407,
      "继母": 8408,
      "Mary": 8409,
      "教师": 8410,
      "董事": 8411,
      "United": 8412,
      "International": 8413,
      "就读于": 8414,
      "小学": 8415,
      "1973": 8416,
      "哈佛大学": 8417,
      "执行官": 8418,
      "史蒂夫": 8419,
      "结成": 8420,
      "哈佛": 8421,
      "第一台": 8422,
      "–": 8423,
      "三年级": 8424,
      "Paul": 8425,
      "1975": 8426,
      "信念": 8427,
      "易用": 8428,
      "省钱": 8429,
      "富于": 8430,
      "经费": 8431,
      "1999": 8432,
      "一书": 8433,
      "计算机技术": 8434,
      "崭新": 8435,
      "本书": 8436,
      "出版": 8437,
      "赢得": 8438,
      "赞誉": 8439,
      "纽约时报": 8440,
      "今日": 8441,
      "畅销书": 8442,
      "1995": 8443,
      "名列": 8444,
      "排行榜": 8445,
      "两本书": 8446,
      "捐献": 8447,
      "热爱": 8448,
      "董事会": 8449,
      "一员": 8450,
      "专注": 8451,
      "分子": 8452,
      "投资人": 8453,
      "资源": 8454,
      "私人": 8455,
      "摄影": 8456,
      "先锋": 8457,
      "轨道": 8458,
      "卫星": 8459,
      "双向": 8460,
      "慈善事业": 8461,
      "捐赠": 8462,
      "240": 8463,
      "医疗": 8464,
      "教育领域": 8465,
      "科技进步": 8466,
      "全人类": 8467,
      "受益": 8468,
      "购置": 8469,
      "低收入": 8470,
      "2.6": 8471,
      "3.8": 8472,
      "发放": 8473,
      "French": 8474,
      "1994": 8475,
      "高尔夫球": 8476,
      "皇冠": 8477,
      "此致": 8478,
      "敬礼": 8479,
      "束缚": 8480,
      "德": 8481,
      "迎来": 8482,
      "大型": 8483,
      "天赋": 8484,
      "比起": 8485,
      "煎熬": 8486,
      "牧师": 8487,
      "气息": 8488,
      "十个": 8489,
      "背负": 8490,
      "重物": 8491,
      "吻": 8492,
      "四处": 8493,
      "嗜": 8494,
      "烟火": 8495,
      "趴": 8496,
      "椒": 8497,
      "巢穴": 8498,
      "记载": 8499,
      "古时": 8500,
      "成龙": 8501,
      "谓": 8502,
      "大叫": 8503,
      "环": 8504,
      "角": 8505,
      "兽": 8506,
      "随之": 8507,
      "xi": 8508,
      "龟": 8509,
      "形似": 8510,
      "石碑": 8511,
      "口": 8512,
      "吞": 8513,
      "遂": 8514,
      "望": 8515,
      "闭": 8516,
      "求救": 8517,
      "眼神": 8518,
      "坐在": 8519,
      "脱": 8520,
      "裙子": 8521,
      "不安": 8522,
      "寄宿": 8523,
      "决不": 8524,
      "呆": 8525,
      "悲惨": 8526,
      "被盗": 8527,
      "问过": 8528,
      "试试看": 8529,
      "一律": 8530,
      "管用": 8531,
      "日语": 8532,
      "ら": 8533,
      "ス": 8534,
      "ク": 8535,
      "ー": 8536,
      "ラ": 8537,
      "计": 8538,
      "ル": 8539,
      "ト": 8540,
      "リ": 8541,
      "ン": 8542,
      "饭后": 8543,
      "依靠": 8544,
      "也罢": 8545,
      "去查": 8546,
      "家里人": 8547,
      "科室": 8548,
      "不好意思": 8549,
      "没能": 8550,
      "一类": 8551,
      "圣诞节": 8552,
      "发短信": 8553,
      "口气": 8554,
      "冷淡": 8555,
      "脸色": 8556,
      "陷入": 8557,
      "想念": 8558,
      "猜测": 8559,
      "要不然": 8560,
      "肤浅": 8561,
      "银行业": 8562,
      "课题": 8563,
      "大纲": 8564,
      "中国人民银行": 8565,
      "金融": 8566,
      "研究所": 8567,
      "刊物": 8568,
      "油箱": 8569,
      "取出": 8570,
      "块钱": 8571,
      "打火机": 8572,
      "爆炸": 8573,
      "管子": 8574,
      "掉落": 8575,
      "拆卸": 8576,
      "陶瓷": 8577,
      "刷卡": 8578,
      "店里": 8579,
      "退款": 8580,
      "拜仁": 8581,
      "就别": 8582,
      "指望": 8583,
      "胜利": 8584,
      "场面": 8585,
      "一球": 8586,
      "盘口": 8587,
      "球": 8588,
      "有点像": 8589,
      "贝里": 8590,
      "强奸": 8591,
      "轻微": 8592,
      "反抗": 8593,
      "按住": 8594,
      "告": 8595,
      "双手": 8596,
      "床上": 8597,
      "指纹": 8598,
      "比较复杂": 8599,
      "男方": 8600,
      "误认为": 8601,
      "女方": 8602,
      "刑法": 8603,
      "有期徒刑": 8604,
      "死刑": 8605,
      "公共场所": 8606,
      "二人": 8607,
      "被害人": 8608,
      "重伤": 8609,
      "严重后果": 8610,
      "误以为": 8611,
      "主体": 8612,
      "2008": 8613,
      "劳动法": 8614,
      "值得注意": 8615,
      "有何": 8616,
      "旧": 8617,
      "代表性": 8618,
      "到位": 8619,
      "BLOG": 8620,
      "JJ": 8621,
      "不疼": 8622,
      "一个多月": 8623,
      "猴子": 8624,
      "阴茎": 8625,
      "丘疹": 8626,
      "特效": 8627,
      "解脱": 8628,
      "生理功能": 8629,
      "珍珠": 8630,
      "翻倍": 8631,
      "名义": 8632,
      "抢救": 8633,
      "透过": 8634,
      "一堆": 8635,
      "废墟": 8636,
      "间隙": 8637,
      "跪": 8638,
      "上身": 8639,
      "向前": 8640,
      "扶": 8641,
      "古人": 8642,
      "诡异": 8643,
      "救援": 8644,
      "伸手": 8645,
      "冲着": 8646,
      "敲": 8647,
      "几下": 8648,
      "回应": 8649,
      "走到": 8650,
      "队长": 8651,
      "尸体": 8652,
      "把手": 8653,
      "身子": 8654,
      "摸索": 8655,
      "活着": 8656,
      "挡": 8657,
      "庇护": 8658,
      "一部": 8659,
      "下意识": 8660,
      "我爱你": 8661,
      "一刻": 8662,
      "落泪": 8663,
      "伟大": 8664,
      "无私": 8665,
      "这位": 8666,
      "共和国": 8667,
      "咽喉": 8668,
      "咽炎": 8669,
      "犯": 8670,
      "扁桃体": 8671,
      "吃点": 8672,
      "泡水": 8673,
      "电气": 8674,
      "土木": 8675,
      "易学": 8676,
      "文科": 8677,
      "讲得": 8678,
      "更难": 8679,
      "同等": 8680,
      "两款": 8681,
      "相差": 8682,
      "太远": 8683,
      "7000": 8684,
      "皮带": 8685,
      "防水": 8686,
      "蓝宝石": 8687,
      "日历": 8688,
      "纯正": 8689,
      "售后": 8690,
      "指针": 8691,
      "详细描述": 8692,
      "参数": 8693,
      "长度": 8694,
      "外壳": 8695,
      "带宽": 8696,
      "计时": 8697,
      "佩戴": 8698,
      "买来": 8699,
      "虚拟内存": 8700,
      "译": 8701,
      "老手": 8702,
      "翻译成": 8703,
      "99": 8704,
      "很难说": 8705,
      "网通": 8706,
      "底盘": 8707,
      "东风": 8708,
      "省油": 8709,
      "铃木": 8710,
      "车祸": 8711,
      "病房": 8712,
      "拍片": 8713,
      "那次": 8714,
      "报销": 8715,
      "10000": 8716,
      "8000": 8717,
      "会计": 8718,
      "帐": 8719,
      "现金": 8720,
      "收据": 8721,
      "原先": 8722,
      "隔天": 8723,
      "前天": 8724,
      "力气": 8725,
      "感冒": 8726,
      "一包": 8727,
      "感冒药": 8728,
      "笨": 8729,
      "三角形": 8730,
      "α": 8731,
      "β": 8732,
      "正弦": 8733,
      "定理": 8734,
      "BD": 8735,
      "∠": 8736,
      "化解": 8737,
      "√": 8738,
      "tan": 8739,
      "元气": 8740,
      "安神": 8741,
      "倦怠": 8742,
      "虚": 8743,
      "促": 8744,
      "健忘": 8745,
      "阳痿": 8746,
      "尿频": 8747,
      "实证": 8748,
      "神马": 8749,
      "化妆品": 8750,
      "水资源": 8751,
      "纯净": 8752,
      "全都": 8753,
      "深层": 8754,
      "本地": 8755,
      "录制": 8756,
      "传到": 8757,
      "网易": 8758,
      "博客": 8759,
      "祝你成功": 8760,
      "摆摊": 8761,
      "爷爷": 8762,
      "上街": 8763,
      "咱们": 8764,
      "缺钱": 8765,
      "开了个": 8766,
      "当代": 8767,
      "天涯": 8768,
      "搜索": 8769,
      "消磨": 8770,
      "新来": 8771,
      "上司": 8772,
      "挂牌": 8773,
      "多多": 8774,
      "哟": 8775,
      "汇报": 8776,
      "执行力": 8777,
      "雷锋": 8778,
      "笔记": 8779,
      "原话": 8780,
      "出处": 8781,
      "日记": 8782,
      "必": 8783,
      "30%": 8784,
      "忽视": 8785,
      "冰冻": 8786,
      "380": 8787,
      "会员": 8788,
      "2800": 8789,
      "4.8": 8790,
      "一等": 8791,
      "四等": 8792,
      "单元格": 8793,
      "字数": 8794,
      "个数": 8795,
      "样例": 8796,
      "战机": 8797,
      "飞机": 8798,
      "歼": 8799,
      "第二代": 8800,
      "战斗机": 8801,
      "第三代": 8802,
      "中等": 8803,
      "机翼": 8804,
      "机动": 8805,
      "斜率": 8806,
      "诱导": 8807,
      "阻力": 8808,
      "能量": 8809,
      "损失": 8810,
      "优于": 8811,
      "并未": 8812,
      "够用": 8813,
      "略有": 8814,
      "上将": 8815,
      "三代": 8816,
      "布局": 8817,
      "作战": 8818,
      "出于": 8819,
      "纵向": 8820,
      "驾驶": 8821,
      "可靠性": 8822,
      "操纵": 8823,
      "不足之处": 8824,
      "飞行员": 8825,
      "小巧": 8826,
      "惯性": 8827,
      "放宽": 8828,
      "静": 8829,
      "安定": 8830,
      "某种程度": 8831,
      "米格": 8832,
      "中有": 8833,
      "视野": 8834,
      "大面积": 8835,
      "逃逸": 8836,
      "略微": 8837,
      "头部": 8838,
      "充分利用": 8839,
      "人机": 8840,
      "模块化": 8841,
      "总线": 8842,
      "外挂": 8843,
      "雷达": 8844,
      "集成电路": 8845,
      "远远": 8846,
      "电子设备": 8847,
      "一时": 8848,
      "―": 8849,
      "向往": 8850,
      "自动化": 8851,
      "公开": 8852,
      "报道": 8853,
      "观念": 8854,
      "典范": 8855,
      "与此同时": 8856,
      "披露": 8857,
      "传感器": 8858,
      "航空": 8859,
      "巴基斯坦": 8860,
      "霹雳": 8861,
      "除此之外": 8862,
      "魔术": 8863,
      "导弹": 8864,
      "空军": 8865,
      "向来": 8866,
      "服役": 8867,
      "一举": 8868,
      "简体中文": 8869,
      "编码": 8870,
      "控制面板": 8871,
      "区域": 8872,
      "前列腺炎": 8873,
      "交给": 8874,
      "前列腺": 8875,
      "生殖系统": 8876,
      "六年级": 8877,
      "一班": 8878,
      "52": 8879,
      "{": 8880,
      "答": 8881,
      "VIP": 8882,
      "章节": 8883,
      "文": 8884,
      "白金": 8885,
      "这份": 8886,
      "大爷": 8887,
      "突发": 8888,
      "脑血栓": 8889,
      "意外": 8890,
      "xxx": 8891,
      "签字": 8892,
      "毫无意义": 8893,
      "依法": 8894,
      "承担责任": 8895,
      "效力": 8896,
      "规避": 8897,
      "多一点": 8898,
      "听人": 8899,
      "矮": 8900,
      "太紧张": 8901,
      "多一些": 8902,
      "吊": 8903,
      "跳绳": 8904,
      "取决于": 8905,
      "睡觉时": 8906,
      "脑垂体": 8907,
      "生长激素": 8908,
      "元素": 8909,
      "氨基酸": 8910,
      "羟基": 8911,
      "含钙": 8912,
      "桔子": 8913,
      "化": 8914,
      "应届": 8915,
      "可不可以": 8916,
      "考试": 8917,
      "看清楚": 8918,
      "职位": 8919,
      "人士": 8920,
      "low": 8921,
      "舞": 8922,
      "注明": 8923,
      "词性": 8924,
      "声调": 8925,
      "ā": 8926,
      "ì": 8927,
      "pi": 8928,
      "á": 8929,
      "o": 8930,
      "ǐ": 8931,
      "贫穷": 8932,
      "论语": 8933,
      "胡须": 8934,
      "阴毛": 8935,
      "同龄人": 8936,
      "手淫": 8937,
      "自卑": 8938,
      "胡子": 8939,
      "性激素": 8940,
      "生殖器官": 8941,
      "来信": 8942,
      "大致": 8943,
      "特异性": 8944,
      "高血脂": 8945,
      "脑中风": 8946,
      "脑梗塞": 8947,
      "高龄": 8948,
      "减低": 8949,
      "俗称": 8950,
      "肥": 8951,
      "冲服": 8952,
      "搭配": 8953,
      "空腹": 8954,
      "舒缓": 8955,
      "晚餐": 8956,
      "一杯": 8957,
      "守护": 8958,
      "轻盈": 8959,
      "涅": 8960,
      "骑马": 8961,
      "捏": 8962,
      "讲课": 8963,
      "是非": 8964,
      "考生": 8965,
      "资格证": 8966,
      "朴实": 8967,
      "通俗易懂": 8968,
      "风趣": 8969,
      "力求": 8970,
      "集中": 8971,
      "积极性": 8972,
      "平淡": 8973,
      "语速": 8974,
      "协调": 8975,
      "叙事": 8976,
      "情景": 8977,
      "逼真": 8978,
      "谈话": 8979,
      "真挚": 8980,
      "感人": 8981,
      "借助": 8982,
      "手势": 8983,
      "穿插": 8984,
      "事例": 8985,
      "比喻": 8986,
      "新颖": 8987,
      "恰当": 8988,
      "寓意": 8989,
      "贴切": 8990,
      "启发性": 8991,
      "难点": 8992,
      "力度": 8993,
      "不清": 8994,
      "听不懂": 8995,
      "一看": 8996,
      "任意": 8997,
      "删减": 8998,
      "响": 8999,
      "课堂": 9000,
      "举例": 9001,
      "讲述": 9002,
      "势必": 9003,
      "适时": 9004,
      "实例": 9005,
      "生动": 9006,
      "情趣": 9007,
      "活跃": 9008,
      "启发": 9009,
      "逻辑性": 9010,
      "系统性": 9011,
      "深浅": 9012,
      "三种": 9013,
      "悬念": 9014,
      "激发": 9015,
      "有意": 9016,
      "独立思考": 9017,
      "巩固": 9018,
      "几名": 9019,
      "黑板": 9020,
      "纠正": 9021,
      "普遍存在": 9022,
      "讨厌": 9023,
      "舍得": 9024,
      "默默地": 9025,
      "深渊": 9026,
      "买回来": 9027,
      "零件": 9028,
      "删掉": 9029,
      "该是": 9030,
      "天线": 9031,
      "病史": 9032,
      "鼻窦炎": 9033,
      "嗅觉": 9034,
      "痰": 9035,
      "痘": 9036,
      "耳屎": 9037,
      "按压": 9038,
      "碰撞": 9039,
      "集合": 9040,
      "左侧": 9041,
      "神经痛": 9042,
      "迎合": 9043,
      "波段": 9044,
      "即将": 9045,
      "飙升": 9046,
      "创立": 9047,
      "当日": 9048,
      "交易日": 9049,
      "收盘价": 9050,
      "权证": 9051,
      "开盘": 9052,
      "明日": 9053,
      "出货": 9054,
      "利润": 9055,
      "7%": 9056,
      "客观": 9057,
      "创新": 9058,
      "回落": 9059,
      "站上": 9060,
      "盈利": 9061,
      "5%": 9062,
      "LM": 9063,
      "BL": 9064,
      "屠杀": 9065,
      "人多": 9066,
      "新款": 9067,
      "行货": 9068,
      "水货": 9069,
      "过年": 9070,
      "别急": 9071,
      "花园": 9072,
      "名片": 9073,
      "春节": 9074,
      "经销商": 9075,
      "卓越": 9076,
      "多好": 9077,
      "珠海": 9078,
      "得知": 9079,
      "曝光": 9080,
      "you": 9081,
      "your": 9082,
      "life": 9083,
      "at": 9084,
      "数额": 9085,
      "分会": 9086,
      "开工": 9087,
      "台湾": 9088,
      "连续剧": 9089,
      "台词": 9090,
      "表情": 9091,
      "电视剧": 9092,
      "演员": 9093,
      "情节": 9094,
      "精彩": 9095,
      "亲身": 9096,
      "控油": 9097,
      "雅虎": 9098,
      "双眼皮": 9099,
      "切开": 9100,
      "三点": 9101,
      "楼": 9102,
      "音质": 9103,
      "iPod": 9104,
      "试听": 9105,
      "信用卡": 9106,
      "担保": 9107,
      "招行": 9108,
      "凭": 9109,
      "还款": 9110,
      "额": 9111,
      "大堂": 9112,
      "经理": 9113,
      "ps": 9114,
      "银": 9115,
      "提现": 9116,
      "出入": 9117,
      "货款": 9118,
      "结算": 9119,
      "审查": 9120,
      "支出": 9121,
      "简便": 9122,
      "工作量": 9123,
      "次日": 9124,
      "手续费": 9125,
      "牛仔裤": 9126,
      "水泡": 9127,
      "洗涤剂": 9128,
      "裤子": 9129,
      "变硬": 9130,
      "大有": 9131,
      "照射": 9132,
      "攒": 9133,
      "组队": 9134,
      "打死": 9135,
      "单练": 9136,
      "分流": 9137,
      "34": 9138,
      "括号": 9139,
      "句子": 9140,
      "未能": 9141,
      "说服": 9142,
      "my": 9143,
      "人太多": 9144,
      "指南": 9145,
      "世界各地": 9146,
      "八岁": 9147,
      "目前为止": 9148,
      "药都": 9149,
      "诊治": 9150,
      "轻度": 9151,
      "常有": 9152,
      "张口": 9153,
      "流口水": 9154,
      "无意识": 9155,
      "尖叫": 9156,
      "哭闹": 9157,
      "同龄": 9158,
      "儿": 9159,
      "起始": 9160,
      "采取有效": 9161,
      "大多": 9162,
      "眼睑": 9163,
      "下垂": 9164,
      "斜视": 9165,
      "三角": 9166,
      "前额": 9167,
      "凸出": 9168,
      "平坦": 9169,
      "扁平": 9170,
      "伸出": 9171,
      "宽大": 9172,
      "外貌": 9173,
      "整天": 9174,
      "表扬": 9175,
      "被忽视": 9176,
      "面容": 9177,
      "双眼": 9178,
      "斜": 9179,
      "舌头": 9180,
      "外边": 9181,
      "神经递质": 9182,
      "认知": 9183,
      "k": 9184,
      "拉长": 9185,
      "含义": 9186,
      "低位": 9187,
      "求助": 9188,
      "弟": 9189,
      "弟弟": 9190,
      "需不需要": 9191,
      "继续下去": 9192,
      "散光": 9193,
      "眼镜": 9194,
      "近视": 9195,
      "视力": 9196,
      "不正": 9197,
      "矫正": 9198,
      "可靠": 9199,
      "戴": 9200,
      "事项": 9201,
      "近视眼": 9202,
      "隐形": 9203,
      "看不出来": 9204,
      "母乳": 9205,
      "奶": 9206,
      "寄": 9207,
      "润滑": 9208,
      "吃饱": 9209,
      "拉屎": 9210,
      "大脑皮层": 9211,
      "小牛": 9212,
      "血清": 9213,
      "银杏": 9214,
      "心脑血管": 9215,
      "应立即": 9216,
      "公交": 9217,
      "充值": 9218,
      "大西洋": 9219,
      "新城": 9220,
      "南门": 9221,
      "总站": 9222,
      "邻居": 9223,
      "不间断": 9224,
      "中途": 9225,
      "中要": 9226,
      "习惯于": 9227,
      "休眠": 9228,
      "电磁辐射": 9229,
      "妥当": 9230,
      "开启": 9231,
      "脑瘤": 9232,
      "仙人掌": 9233,
      "后要": 9234,
      "破损": 9235,
      "劣质": 9236,
      "坚决": 9237,
      "莱斯": 9238,
      "头颅": 9239,
      "打断": 9240,
      "五人": 9241,
      "验血": 9242,
      "放心好了": 9243,
      "初次": 9244,
      "件": 9245,
      "准妈妈": 9246,
      "隐患": 9247,
      "孕早期": 9248,
      "生存环境": 9249,
      "黏膜": 9250,
      "息肉": 9251,
      "阴道内": 9252,
      "滴虫": 9253,
      "微生物": 9254,
      "上行": 9255,
      "初级": 9256,
      "阴道镜": 9257,
      "活检": 9258,
      "妇科": 9259,
      "三合": 9260,
      "停经": 9261,
      "月份": 9262,
      "肌瘤": 9263,
      "终止": 9264,
      "尽可能": 9265,
      "双侧": 9266,
      "卵巢": 9267,
      "器质性": 9268,
      "后会": 9269,
      "消退": 9270,
      "良性": 9271,
      "超声": 9272,
      "种植": 9273,
      "随访": 9274,
      "甲状腺": 9275,
      "夫妇": 9276,
      "flash": 9277,
      "blog": 9278,
      "http": 9279,
      "复制": 9280,
      "V": 9281,
      "大头": 9282,
      "认证": 9283,
      "月底": 9284,
      "31": 9285,
      "税务局": 9286,
      "扫描": 9287,
      "BB": 9288,
      "一月": 9289,
      "好几": 9290,
      "那点": 9291,
      "不靠": 9292,
      "母": 9293,
      "原型": 9294,
      "北欧": 9295,
      "神话": 9296,
      "诗词": 9297,
      "分发": 9298,
      "闪电": 9299,
      "冰雪": 9300,
      "作家": 9301,
      "国度": 9302,
      "马车": 9303,
      "出游": 9304,
      "坚果": 9305,
      "诸多": 9306,
      "挨": 9307,
      "纷纷": 9308,
      "听话": 9309,
      "深深地": 9310,
      "从那时起": 9311,
      "四维": 9312,
      "颗粒": 9313,
      "前两天": 9314,
      "肋骨": 9315,
      "噩梦": 9316,
      "挣": 9317,
      "夜晚": 9318,
      "病理": 9319,
      "可怕": 9320,
      "体检": 9321,
      "妇科病": 9322,
      "那才": 9323,
      "支票": 9324,
      "这笔": 9325,
      "总有": 9326,
      "点滴": 9327,
      "经血": 9328,
      "淤积": 9329,
      "小腹": 9330,
      "腹部": 9331,
      "益母草": 9332,
      "冲剂": 9333,
      "化妆": 9334,
      "严谨": 9335,
      "教会": 9336,
      "台上": 9337,
      "这台": 9338,
      "启用": 9339,
      "聊天记录": 9340,
      "查到": 9341,
      "命名": 9342,
      "黑屏": 9343,
      "Photoshop": 9344,
      "CS": 9345,
      "重新启动": 9346,
      "无能为力": 9347,
      "留个": 9348,
      "可不": 9349,
      "传染给": 9350,
      "传给": 9351,
      "肝炎": 9352,
      "两对半": 9353,
      "转阴": 9354,
      "肾虚": 9355,
      "玉米": 9356,
      "核桃": 9357,
      "毛": 9358,
      "仁": 9359,
      "漂白": 9360,
      "籽": 9361,
      "糖水": 9362,
      "网店": 9363,
      "直销": 9364,
      "档次": 9365,
      "歌词": 9366,
      "歌名": 9367,
      "主题曲": 9368,
      "蓝光": 9369,
      "急急": 9370,
      "自定义": 9371,
      "第一项": 9372,
      "背景": 9373,
      "定制": 9374,
      "太多": 9375,
      "藻类": 9376,
      "昆虫": 9377,
      "炖": 9378,
      "标注": 9379,
      "出售": 9380,
      "攻击力": 9381,
      "太慢": 9382,
      "澳门": 9383,
      "900": 9384,
      "处女座": 9385,
      "射手座": 9386,
      "表态": 9387,
      "玛丽": 9388,
      "发给": 9389,
      "冢": 9390,
      "不二": 9391,
      "养颜": 9392,
      "枚": 9393,
      "枸杞子": 9394,
      "红糖": 9395,
      "30g": 9396,
      "煮粥": 9397,
      "补肾": 9398,
      "缺铁性": 9399,
      "瘦弱": 9400,
      "奶茶": 9401,
      "100g": 9402,
      "兑": 9403,
      "趁热": 9404,
      "体虚": 9405,
      "中老年人": 9406,
      "陈皮": 9407,
      "冰糖": 9408,
      "粳米": 9409,
      "置": 9410,
      "砂锅": 9411,
      "煮成": 9412,
      "润肺": 9413,
      "冬瓜": 9414,
      "捣烂": 9415,
      "药丸": 9416,
      "保管": 9417,
      "10g": 9418,
      "送服": 9419,
      "黑斑": 9420,
      "桃花": 9421,
      "活血化瘀": 9422,
      "乳酪": 9423,
      "美白": 9424,
      "杯水": 9425,
      "光泽": 9426,
      "眼皮": 9427,
      "上铺": 9428,
      "两片": 9429,
      "梨": 9430,
      "好莱坞": 9431,
      "花生酱": 9432,
      "膝": 9433,
      "麦片": 9434,
      "匙": 9435,
      "唇": 9436,
      "光亮": 9437,
      "牛油果": 9438,
      "钾": 9439,
      "指甲": 9440,
      "拯救": 9441,
      "毫无": 9442,
      "皮": 9443,
      "家用": 9444,
      "燕麦": 9445,
      "燕麦粥": 9446,
      "圆圈": 9447,
      "糊涂": 9448,
      "颈部": 9449,
      "牛皮癣": 9450,
      "水龙头": 9451,
      "茶匙": 9452,
      "调": 9453,
      "糊状": 9454,
      "闭上眼睛": 9455,
      "十分钟": 9456,
      "名为": 9457,
      "黑眼圈": 9458,
      "板凳": 9459,
      "桌上": 9460,
      "两手": 9461,
      "深呼吸": 9462,
      "抗菌": 9463,
      "极好": 9464,
      "发光": 9465,
      "@": 9466,
      "p": 9467,
      "玫瑰花": 9468,
      "两半": 9469,
      "调味料": 9470,
      "健脾": 9471,
      "泡": 9472,
      "嚼": 9473,
      "肝功能": 9474,
      "衰老": 9475,
      "UI": 9476,
      "77": 9477,
      "u": 9478,
      "鲜奶": 9479,
      "皱": 9480,
      "苦瓜": 9481,
      "J": 9482,
      "数次": 9483,
      "补中": 9484,
      "之称": 9485,
      "砂糖": 9486,
      "强壮": 9487,
      "二个": 9488,
      "做菜": 9489,
      "彼": 9490,
      "一概而论": 9491,
      "饭菜": 9492,
      "0.9": 9493,
      "氨水": 9494,
      "mol": 9495,
      "L": 9496,
      "×": 9497,
      "÷": 9498,
      "≈": 9499,
      "从没": 9500,
      "想过": 9501,
      "回报": 9502,
      "另一半": 9503,
      "内疚": 9504,
      "哄": 9505,
      "火车": 9506,
      "一列": 9507,
      "车次": 9508,
      "用时": 9509,
      "里程": 9510,
      "终点站": 9511,
      "06": 9512,
      "163": 9513,
      "168": 9514,
      "射手": 9515,
      "要学": 9516,
      "就学": 9517,
      "学了": 9518,
      "第一阶段": 9519,
      "有用吗": 9520,
      "初期": 9521,
      "弓手": 9522,
      "致命": 9523,
      "攻击速度": 9524,
      "加法": 9525,
      "副本": 9526,
      "搞定": 9527,
      "隆鼻": 9528,
      "崩溃": 9529,
      "鼻": 9530,
      "理科": 9531,
      "理解能力": 9532,
      "做题": 9533,
      "给你个": 9534,
      "一小": 9535,
      "佳": 9536,
      "浪费时间": 9537,
      "拍拍": 9538,
      "机率": 9539,
      "扭转": 9540,
      "物理化学": 9541,
      "教材": 9542,
      "读过": 9543,
      "半小时": 9544,
      "试过": 9545,
      "继承": 9546,
      "考上": 9547,
      "本科": 9548,
      "表中": 9549,
      "可比": 9550,
      "验证": 9551,
      "却说": 9552,
      "过期": 9553,
      "证书": 9554,
      "用户注册": 9555,
      "操作系统": 9556,
      "找回": 9557,
      "mail": 9558,
      "输入您": 9559,
      "输入框": 9560,
      "写字楼": 9561,
      "上半年": 9562,
      "平稳": 9563,
      "出台": 9564,
      "住宅": 9565,
      "凭借": 9566,
      "整体": 9567,
      "季度": 9568,
      "加权": 9569,
      "参见": 9570,
      "图表": 9571,
      "46": 9572,
      "145": 9573,
      "第一章": 9574,
      "概述": 9575,
      "1.1": 9576,
      "评定": 9577,
      "通行": 9578,
      "叫法": 9579,
      "乙级": 9580,
      "恨不得": 9581,
      "电梯": 9582,
      "要素": 9583,
      "房地产": 9584,
      "地段": 9585,
      "个个": 9586,
      "体量": 9587,
      "伸展": 9588,
      "拓展": 9589,
      "公寓": 9590,
      "休闲": 9591,
      "购物中心": 9592,
      "设施": 9593,
      "称得上": 9594,
      "五星级": 9595,
      "皇后": 9596,
      "说成": 9597,
      "摩天大楼": 9598,
      "东方": 9599,
      "情结": 9600,
      "奢华": 9601,
      "极致": 9602,
      "豪宅": 9603,
      "建筑设计": 9604,
      "高效": 9605,
      "物业管理": 9606,
      "入住": 9607,
      "专业化": 9608,
      "策划": 9609,
      "新型": 9610,
      "节假日": 9611,
      "基本功能": 9612,
      "物业": 9613,
      "伴随": 9614,
      "改革开放": 9615,
      "之初": 9616,
      "引用": 9617,
      "市场经济": 9618,
      "综合性": 9619,
      "智能化": 9620,
      "投放": 9621,
      "办事处": 9622,
      "场地": 9623,
      "出租": 9624,
      "大都": 9625,
      "建于": 9626,
      "贸易": 9627,
      "服务业": 9628,
      "优越": 9629,
      "便利": 9630,
      "便于": 9631,
      "往来": 9632,
      "繁荣": 9633,
      "都市": 9634,
      "推动": 9635,
      "三是": 9636,
      "人口密度": 9637,
      "单元": 9638,
      "集": 9639,
      "多功能": 9640,
      "原始": 9641,
      "总价": 9642,
      "利润率": 9643,
      "全额": 9644,
      "投资者": 9645,
      "漫长": 9646,
      "局面": 9647,
      "买家": 9648,
      "过长": 9649,
      "回收": 9650,
      "困境": 9651,
      "并存": 9652,
      "发展趋势": 9653,
      "迅猛": 9654,
      "日益": 9655,
      "自有": 9656,
      "实力": 9657,
      "大楼": 9658,
      "一环": 9659,
      "刻板": 9660,
      "过渡": 9661,
      "急于": 9662,
      "规范": 9663,
      "楼层": 9664,
      "混乱": 9665,
      "入驻": 9666,
      "坤": 9667,
      "大地": 9668,
      "气势": 9669,
      "增厚": 9670,
      "万物": 9671,
      "列车": 9672,
      "转让": 9673,
      "去世": 9674,
      "双人": 9675,
      "狂": 9676,
      "箭": 9677,
      "翅膀": 9678,
      "现": 9679,
      "118": 9680,
      "2y": 9681,
      "满月": 9682,
      "打鼾": 9683,
      "闭口": 9684,
      "嗓子": 9685,
      "间歇性": 9686,
      "后背": 9687,
      "头孢": 9688,
      "糖浆": 9689,
      "雾化": 9690,
      "鸽子": 9691,
      "叫声": 9692,
      "喘息": 9693,
      "发育不良": 9694,
      "气道": 9695,
      "吸入": 9696,
      "防空": 9697,
      "层面": 9698,
      "无人机": 9699,
      "车载": 9700,
      "轻型": 9701,
      "装甲": 9702,
      "1986": 9703,
      "厄": 9704,
      "分公司": 9705,
      "宇宙": 9706,
      "有效性": 9707,
      "前沿": 9708,
      "前线": 9709,
      "部队": 9710,
      "火力": 9711,
      "简化": 9712,
      "后勤": 9713,
      "支援": 9714,
      "复杂性": 9715,
      "双重": 9716,
      "前方": 9717,
      "融合": 9718,
      "兼具": 9719,
      "陆军": 9720,
      "战车": 9721,
      "指挥": 9722,
      "配备": 9723,
      "多达": 9724,
      "担任": 9725,
      "控制器": 9726,
      "实时": 9727,
      "识别": 9728,
      "威胁": 9729,
      "48": 9730,
      "通信": 9731,
      "无线电": 9732,
      "无线": 9733,
      "对峙": 9734,
      "射程": 9735,
      "精确度": 9736,
      "数位": 9737,
      "精度": 9738,
      "推进": 9739,
      "发射": 9740,
      "延迟": 9741,
      "设定": 9742,
      "51": 9743,
      "穿透": 9744,
      "监视": 9745,
      "极高": 9746,
      "杂乱": 9747,
      "光电": 9748,
      "捕获": 9749,
      "跟踪": 9750,
      "武装": 9751,
      "获取": 9752,
      "天气状况": 9753,
      "摄像": 9754,
      "脉冲": 9755,
      "辨识": 9756,
      "拉克": 9757,
      "编入": 9758,
      "公测": 9759,
      "玩意": 9760,
      "解救": 9761,
      "强行": 9762,
      "更大": 9763,
      "提及": 9764,
      "延误": 9765,
      "睡前": 9766,
      "户外": 9767,
      "散步": 9768,
      "上床": 9769,
      "洗个": 9770,
      "具体方法": 9771,
      "功": 9772,
      "流传": 9773,
      "聆听": 9774,
      "节律": 9775,
      "音响": 9776,
      "磁带": 9777,
      "催眠": 9778,
      "有助": 9779,
      "加糖": 9780,
      "胰岛素": 9781,
      "人脑": 9782,
      "微量": 9783,
      "样式": 9784,
      "镇定": 9785,
      "舒适": 9786,
      "为佳": 9787,
      "右手": 9788,
      "橙": 9789,
      "芳香": 9790,
      "神经系统": 9791,
      "镇静": 9792,
      "糖分": 9793,
      "适应环境": 9794,
      "应先": 9795,
      "思索": 9796,
      "起床": 9797,
      "充沛": 9798,
      "恐怖主义": 9799,
      "领土": 9800,
      "纠纷": 9801,
      "根源": 9802,
      "大国": 9803,
      "垄断": 9804,
      "肆意": 9805,
      "政": 9806,
      "冷战": 9807,
      "动荡": 9808,
      "不合理": 9809,
      "分工": 9810,
      "体系": 9811,
      "支配": 9812,
      "发达国家": 9813,
      "货币": 9814,
      "阻碍": 9815,
      "发展中国家": 9816,
      "失衡": 9817,
      "军事": 9818,
      "武力": 9819,
      "侵略": 9820,
      "仍旧": 9821,
      "政治": 9822,
      "推行": 9823,
      "核武器": 9824,
      "处在": 9825,
      "核": 9826,
      "为首": 9827,
      "这场": 9828,
      "公正": 9829,
      "135": 9830,
      "卒": 9831,
      "青云": 9832,
      "青海": 9833,
      "泡泡": 9834,
      "新村": 9835,
      "坐地铁": 9836,
      "地铁站": 9837,
      "节目": 9838,
      "收视率": 9839,
      "改版": 9840,
      "晚会": 9841,
      "文艺": 9842,
      "广播": 9843,
      "疏远": 9844,
      "表现形式": 9845,
      "说唱": 9846,
      "新人": 9847,
      "展": 9848,
      "新作": 9849,
      "重温": 9850,
      "经典": 9851,
      "领略": 9852,
      "艺术家": 9853,
      "老朋友": 9854,
      "CCTV": 9855,
      "首播": 9856,
      "清泉": 9857,
      "均线": 9858,
      "上方": 9859,
      "逐步": 9860,
      "仓位": 9861,
      "断奶": 9862,
      "很久": 9863,
      "奶瓶": 9864,
      "小块": 9865,
      "吵": 9866,
      "虾仁": 9867,
      "救命": 9868,
      "魔兽": 9869,
      "GT": 9870,
      "运转": 9871,
      "散热器": 9872,
      "湖南": 9873,
      "土木工程": 9874,
      "考了": 9875,
      "志愿": 9876,
      "录取": 9877,
      "分数": 9878,
      "分数线": 9879,
      "追": 9880,
      "惹": 9881,
      "放不下": 9882,
      "干脆": 9883,
      "不接": 9884,
      "道歉": 9885,
      "回音": 9886,
      "猜想": 9887,
      "坚定": 9888,
      "心理准备": 9889,
      "能为": 9890,
      "充实": 9891,
      "地为": 9892,
      "个人观点": 9893,
      "禽流感": 9894,
      "ATM": 9895,
      "每月": 9896,
      "机上": 9897,
      "笔": 9898,
      "一进": 9899,
      "十几岁": 9900,
      "一岁": 9901,
      "痛经": 9902,
      "三到": 9903,
      "四年": 9904,
      "很重": 9905,
      "用车": 9906,
      "这辆": 9907,
      "车主": 9908,
      "留心": 9909,
      "免疫力": 9910,
      "锻炼身体": 9911,
      "空格": 9912,
      "预设": 9913,
      "空白": 9914,
      "录入": 9915,
      "汉字": 9916,
      "最短": 9917,
      "选择性": 9918,
      "过不去": 9919,
      "顺便": 9920,
      "点到": 9921,
      "element": 9922,
      "暗黑": 9923,
      "套装": 9924,
      "不朽": 9925,
      "之王": 9926,
      "塔拉": 9927,
      "夏": 9928,
      "暴躁": 9929,
      "外皮": 9930,
      "神殿": 9931,
      "隐藏": 9932,
      "巴尔": 9933,
      "人品": 9934,
      "爆发": 9935,
      "防晒霜": 9936,
      "见效快": 9937,
      "悬赏": 9938,
      "小时候": 9939,
      "另一边": 9940,
      "偏方": 9941,
      "胸肌": 9942,
      "掩饰": 9943,
      "求证": 9944,
      "描述性": 9945,
      "△": 9946,
      "管理软件": 9947,
      "台": 9948,
      "该软件": 9949,
      "五代": 9950,
      "01": 9951,
      "推出": 9952,
      "第一代": 9953,
      "不断完善": 9954,
      "稳定性": 9955,
      "声誉": 9956,
      "FTP": 9957,
      "远程": 9958,
      "腾讯": 9959,
      "端口": 9960,
      "关键词": 9961,
      "流量": 9962,
      "黑名单": 9963,
      "绑定": 9964,
      "MAC": 9965,
      "库": 9966,
      "财经": 9967,
      "探测": 9968,
      "截取": 9969,
      "报表": 9970,
      "各类": 9971,
      "跨": 9972,
      "传输": 9973,
      "网卡": 9974,
      "权限": 9975,
      "身份验证": 9976,
      "压缩": 9977,
      "打印": 9978,
      "跨平台": 9979,
      "Linux": 9980,
      "捆绑": 9981,
      "可恶": 9982,
      "围墙": 9983,
      "民俗": 9984,
      "一座": 9985,
      "成都市": 9986,
      "改造": 9987,
      "精品": 9988,
      "大桥": 9989,
      "看点": 9990,
      "同行": 9991,
      "火锅": 9992,
      "半夜": 9993,
      "赴": 9994,
      "外地人": 9995,
      "长达": 9996,
      "浓缩": 9997,
      "2300": 9998,
      "雕塑": 9999,
      "本土": 10000,
      "2.5": 10001,
      "上以": 10002,
      "再现": 10003,
      "秦": 10004,
      "汉": 10005,
      "真人": 10006,
      "小包": 10007,
      "兔": 10008,
      "夫": 10009,
      "阳历": 10010,
      "入宅": 10011,
      "吉日": 10012,
      "农历": 10013,
      "十八": 10014,
      "贵人": 10015,
      "生肖": 10016,
      "六合": 10017,
      "禄": 10018,
      "妻": 10019,
      "时请": 10020,
      "无助": 10021,
      "二月": 10022,
      "蛇": 10023,
      "十九": 10024,
      "四月": 10025,
      "甲子": 10026,
      "二十四": 10027,
      "杂物": 10028,
      "锅": 10029,
      "开门": 10030,
      "祭祖": 10031,
      "开火": 10032,
      "点火": 10033,
      "放鞭炮": 10034,
      "祭祀": 10035,
      "祖先": 10036,
      "烹饪": 10037,
      "事事": 10038,
      "大吉": 10039,
      "那要": 10040,
      "亲吻": 10041,
      "难忘": 10042,
      "家庭主妇": 10043,
      "该死": 10044,
      "视线": 10045,
      "增": 10046,
      "え": 10047,
      "る": 10048,
      "ん": 10049,
      "じ": 10050,
      "な": 10051,
      "い": 10052,
      "反问": 10053,
      "尾": 10054,
      "か": 10055,
      "省略": 10056,
      "5.1": 10057,
      "音箱": 10058,
      "环绕": 10059,
      "DVD": 10060,
      "0.5": 10061,
      "126": 10062,
      "另类": 10063,
      "显示器": 10064,
      "不带": 10065,
      "会为": 10066,
      "开朗": 10067,
      "节奏": 10068,
      "加快": 10069,
      "精神压力": 10070,
      "欠佳": 10071,
      "调节": 10072,
      "豁达": 10073,
      "吼": 10074,
      "发泄": 10075,
      "静静地": 10076,
      "倾诉": 10077,
      "乐曲": 10078,
      "疲惫": 10079,
      "舒畅": 10080,
      "忘掉": 10081,
      "放慢": 10082,
      "生活节奏": 10083,
      "冷静": 10084,
      "做错": 10085,
      "勇敢": 10086,
      "伯": 10087,
      "友谊": 10088,
      "心情舒畅": 10089,
      "增进": 10090,
      "友情": 10091,
      "精灵": 10092,
      "豹": 10093,
      "司令": 10094,
      "豹子": 10095,
      "满": 10096,
      "稠": 10097,
      "数据线": 10098,
      "USB": 10099,
      "3D": 10100,
      "水准": 10101,
      "没多大": 10102,
      "高分辨率": 10103,
      "大屏幕": 10104,
      "看着": 10105,
      "FM": 10106,
      "GPS": 10107,
      "货源": 10108,
      "八字": 10109,
      "翘": 10110,
      "娃娃": 10111,
      "径": 10112,
      "平均值": 10113,
      "士": 10114,
      "网上银行": 10115,
      "年终": 10116,
      "网银": 10117,
      "小丑": 10118,
      "其余": 10119,
      "引擎": 10120,
      "罩": 10121,
      "部长": 10122,
      "首尔": 10123,
      "丛林": 10124,
      "中西医": 10125,
      "外阴": 10126,
      "搔": 10127,
      "酸碱度": 10128,
      "念珠菌": 10129,
      "pH": 10130,
      "值为": 10131,
      "抑制作用": 10132,
      "4%": 10133,
      "疗程": 10134,
      "栓剂": 10135,
      "每晚": 10136,
      "天为": 10137,
      "外用": 10138,
      "药膏": 10139,
      "外涂": 10140,
      "外阴炎": 10141,
      "类固醇": 10142,
      "止痒": 10143,
      "口服": 10144,
      "晚饭": 10145,
      "服药": 10146,
      "中草药": 10147,
      "熏": 10148,
      "灼热": 10149,
      "处方": 10150,
      "苦参": 10151,
      "性病": 10152,
      "精选": 10153,
      "丁香": 10154,
      "藿香": 10155,
      "大黄": 10156,
      "真菌": 10157,
      "淋病": 10158,
      "亦可": 10159,
      "洗液": 10160,
      "已婚": 10161,
      "备用": 10162,
      "痊愈": 10163,
      "化验": 10164,
      "阴性": 10165,
      "学姐": 10166,
      "国米": 10167,
      "赔率": 10168,
      "庄家": 10169,
      "胜": 10170,
      "赔": 10171,
      "墙": 10172,
      "藏族": 10173,
      "石": 10174,
      "西藏": 10175,
      "湖边": 10176,
      "石块": 10177,
      "堆": 10178,
      "杰作": 10179,
      "最初": 10180,
      "灵气": 10181,
      "藏语": 10182,
      "藏传佛教": 10183,
      "长长的": 10184,
      "每逢": 10185,
      "桑": 10186,
      "口中": 10187,
      "祈祷": 10188,
      "丢": 10189,
      "凝结": 10190,
      "信徒": 10191,
      "发自内心": 10192,
      "石刻": 10193,
      "凡": 10194,
      "载体": 10195,
      "文明": 10196,
      "有力": 10197,
      "见证": 10198,
      "野兽": 10199,
      "抵御": 10200,
      "文物": 10201,
      "印证": 10202,
      "佛像": 10203,
      "足迹": 10204,
      "多用": 10205,
      "化石": 10206,
      "考古": 10207,
      "综述": 10208,
      "载": 10209,
      "新石器": 10210,
      "一带": 10211,
      "东北": 10212,
      "以南": 10213,
      "另有": 10214,
      "三块": 10215,
      "山上": 10216,
      "屋顶": 10217,
      "供奉": 10218,
      "神灵": 10219,
      "之处": 10220,
      "乃是": 10221,
      "化身": 10222,
      "高山": 10223,
      "峡谷": 10224,
      "走势": 10225,
      "8.5": 10226,
      "人民币": 10227,
      "英镑": 10228,
      "中日": 10229,
      "一篇": 10230,
      "稿子": 10231,
      "论述": 10232,
      "姓氏": 10233,
      "列出来": 10234,
      "赵": 10235,
      "孙": 10236,
      "姓": 10237,
      "那儿": 10238,
      "汉代": 10239,
      "来历": 10240,
      "氏族": 10241,
      "部落": 10242,
      "其后": 10243,
      "姬": 10244,
      "齐": 10245,
      "鲁": 10246,
      "晋": 10247,
      "宋": 10248,
      "郑": 10249,
      "卫": 10250,
      "魏": 10251,
      "蔡": 10252,
      "曹": 10253,
      "胡": 10254,
      "邑": 10255,
      "帝王": 10256,
      "河北省": 10257,
      "据统计": 10258,
      "演变": 10259,
      "亭": 10260,
      "欧阳": 10261,
      "居住地": 10262,
      "自此": 10263,
      "传世": 10264,
      "公子": 10265,
      "祖父": 10266,
      "排行": 10267,
      "曰": 10268,
      "叔": 10269,
      "季": 10270,
      "例外": 10271,
      "司徒": 10272,
      "丹": 10273,
      "少数民族": 10274,
      "谥号": 10275,
      "避讳": 10276,
      "全文": 10277,
      "冯": 10278,
      "蒋": 10279,
      "沈": 10280,
      "杨": 10281,
      "朱": 10282,
      "许": 10283,
      "吕": 10284,
      "施": 10285,
      "孔": 10286,
      "严": 10287,
      "华": 10288,
      "窦": 10289,
      "云": 10290,
      "潘": 10291,
      "范": 10292,
      "彭": 10293,
      "郎": 10294,
      "韦": 10295,
      "俞": 10296,
      "袁": 10297,
      "唐": 10298,
      "薛": 10299,
      "罗": 10300,
      "毕": 10301,
      "康": 10302,
      "余": 10303,
      "顾": 10304,
      "装修": 10305,
      "新房": 10306,
      "用过": 10307,
      "海尔": 10308,
      "万元": 10309,
      "着重": 10310,
      "油价": 10311,
      "结实": 10312,
      "驾照": 10313,
      "马路": 10314,
      "难免": 10315,
      "奔驰": 10316,
      "法拉利": 10317,
      "配件": 10318,
      "能否": 10319,
      "国债": 10320,
      "国有企业": 10321,
      "佩服": 10322,
      "哈哈哈": 10323,
      "数组": 10324,
      "只不过": 10325,
      "时用": 10326,
      "返回": 10327,
      "number": 10328,
      "随机数": 10329,
      "序列": 10330,
      "给定": 10331,
      "数列": 10332,
      "初始化": 10333,
      "生成器": 10334,
      "计时器": 10335,
      "负": 10336,
      "心酸": 10337,
      "07": 10338,
      "02": 10339,
      "真心": 10340,
      "可惜": 10341,
      "圣彼得堡": 10342,
      "冠军": 10343,
      "曼联": 10344,
      "曼城": 10345,
      "几万": 10346,
      "刻苦": 10347,
      "成语": 10348,
      "几条": 10349,
      "囊": 10350,
      "持之以恒": 10351,
      "坚持不懈": 10352,
      "净化": 10353,
      "搞错": 10354,
      "打倒": 10355,
      "阴阳": 10356,
      "两面": 10357,
      "区块": 10358,
      "魂": 10359,
      "古老": 10360,
      "幅度": 10361,
      "防具": 10362,
      "技": 10363,
      "大招": 10364,
      "惊人": 10365,
      "考量": 10366,
      "原则上": 10367,
      "古": 10368,
      "同步": 10369,
      "进化": 10370,
      "安宁": 10371,
      "村": 10372,
      "打败": 10373,
      "锁": 10374,
      "第七": 10375,
      "王后": 10376,
      "第八": 10377,
      "第九": 10378,
      "不久": 10379,
      "捡": 10380,
      "神兽": 10381,
      "五行": 10382,
      "雪": 10383,
      "全体": 10384,
      "风水": 10385,
      "坠": 10386,
      "风云": 10387,
      "斩": 10388,
      "返": 10389,
      "日月": 10390,
      "逆": 10391,
      "乾坤": 10392,
      "天地": 10393,
      "心得": 10394,
      "填满": 10395,
      "七星": 10396,
      "一栏": 10397,
      "翻转": 10398,
      "预览": 10399,
      "看一看": 10400,
      "上部": 10401,
      "220": 10402,
      "槽": 10403,
      "快慢": 10404,
      "排列": 10405,
      "景天": 10406,
      "指令": 10407,
      "对付": 10408,
      "累加": 10409,
      "御": 10410,
      "零花钱": 10411,
      "上交": 10412,
      "生活费": 10413,
      "余下": 10414,
      "亲戚朋友": 10415,
      "从来不": 10416,
      "很烦": 10417,
      "有次": 10418,
      "没想到": 10419,
      "居然": 10420,
      "几句话": 10421,
      "煲": 10422,
      "舅舅": 10423,
      "姨妈": 10424,
      "租": 10425,
      "租房": 10426,
      "一趟": 10427,
      "嫌": 10428,
      "收看": 10429,
      "顶多": 10430,
      "同情": 10431,
      "恨": 10432,
      "分清": 10433,
      "小钱": 10434,
      "活得": 10435,
      "尽力": 10436,
      "亲人": 10437,
      "眼里": 10438,
      "相提并论": 10439,
      "己": 10440,
      "埋怨": 10441,
      "有句": 10442,
      "远处": 10443,
      "唯独": 10444,
      "睫毛": 10445,
      "发脾气": 10446,
      "裁员": 10447,
      "感想": 10448,
      "今天下午": 10449,
      "将要": 10450,
      "早就": 10451,
      "段时间": 10452,
      "低端": 10453,
      "岗位": 10454,
      "推荐信": 10455,
      "职场": 10456,
      "生涯": 10457,
      "睡不着": 10458,
      "好几个": 10459,
      "UC": 10460,
      "榴莲": 10461,
      "热量": 10462,
      "中所含": 10463,
      "卡路里": 10464,
      "果糖": 10465,
      "橘子": 10466,
      "李子": 10467,
      "高热量": 10468,
      "龙眼": 10469,
      "尽量少": 10470,
      "维他命": 10471,
      "质": 10472,
      "代谢率": 10473,
      "不利于": 10474,
      "减重": 10475,
      "白开水": 10476,
      "吃法": 10477,
      "柚子": 10478,
      "绝大多数": 10479,
      "粗纤维": 10480,
      "节食": 10481,
      "挑食": 10482,
      "瘦肉": 10483,
      "第一点": 10484,
      "憋": 10485,
      "心急": 10486,
      "事后": 10487,
      "下身": 10488,
      "光线": 10489,
      "柔和": 10490,
      "裸体": 10491,
      "喝酒": 10492,
      "避孕": 10493,
      "关爱": 10494,
      "内裤": 10495,
      "一塌糊涂": 10496,
      "双腿": 10497,
      "张开": 10498,
      "地上": 10499,
      "正面": 10500,
      "处女膜": 10501,
      "破裂": 10502,
      "疼痛感": 10503,
      "内衣": 10504,
      "不下": 10505,
      "胸罩": 10506,
      "青年人": 10507,
      "十几年": 10508,
      "交代": 10509,
      "学费": 10510,
      "可悲": 10511,
      "红包": 10512,
      "贡献": 10513,
      "中年": 10514,
      "啃": 10515,
      "应付": 10516,
      "失业": 10517,
      "看不起": 10518,
      "势力": 10519,
      "武将": 10520,
      "出头": 10521,
      "乱世": 10522,
      "多名": 10523,
      "帅": 10524,
      "无数": 10525,
      "预": 10526,
      "跟随": 10527,
      "让玩家": 10528,
      "封印": 10529,
      "治安": 10530,
      "吕布": 10531,
      "辽": 10532,
      "袁绍": 10533,
      "关羽": 10534,
      "张飞": 10535,
      "赵云": 10536,
      "加深": 10537,
      "犹豫": 10538,
      "追随": 10539,
      "脚步": 10540,
      "梦想": 10541,
      "1921": 10542,
      "中国政府": 10543,
      "两颗": 10544,
      "1929": 10545,
      "地质": 10546,
      "头骨": 10547,
      "预言": 10548,
      "昏暗": 10549,
      "舍不得": 10550,
      "蜡烛": 10551,
      "挖掘": 10552,
      "提议": 10553,
      "国宝": 10554,
      "主张": 10555,
      "天亮": 10556,
      "挖": 10557,
      "这项": 10558,
      "差一点": 10559,
      "少年": 10560,
      "1936": 10561,
      "考古学家": 10562,
      "主持": 10563,
      "发掘": 10564,
      "当中": 10565,
      "震惊": 10566,
      "史上": 10567,
      "罕见": 10568,
      "这一": 10569,
      "模型": 10570,
      "复原": 10571,
      "第三个": 10572,
      "砖": 10573,
      "仪": 10574,
      "锤": 10575,
      "落下": 10576,
      "咔": 10577,
      "直角": 10578,
      "挂钩": 10579,
      "格斗": 10580,
      "74": 10581,
      "84": 10582,
      "就职": 10583,
      "弹": 10584,
      "崩": 10585,
      "飞": 10586,
      "1500": 10587,
      "喝茶": 10588,
      "午休": 10589,
      "刚刚开始": 10590,
      "一二": 10591,
      "剧本": 10592,
      "CC": 10593,
      "司马懿": 10594,
      "手枪": 10595,
      "火药": 10596,
      "高压": 10597,
      "构造": 10598,
      "平方厘米": 10599,
      "隔离": 10600,
      "眼角": 10601,
      "出句": 10602,
      "微风": 10603,
      "对句": 10604,
      "临近": 10605,
      "拔": 10606,
      "联网": 10607,
      "太长": 10608,
      "电容": 10609,
      "修理": 10610,
      "小店": 10611,
      "修好": 10612,
      "放电": 10613,
      "作文": 10614,
      "昆明": 10615,
      "大理": 10616,
      "古城": 10617,
      "风情": 10618,
      "古镇": 10619,
      "丽江": 10620,
      "冰川": 10621,
      "坪": 10622,
      "玉": 10623,
      "博物馆": 10624,
      "壁画": 10625,
      "寺": 10626,
      "观音": 10627,
      "酒吧": 10628,
      "草原": 10629,
      "大宝": 10630,
      "茨": 10631,
      "太子": 10632,
      "庙": 10633,
      "孔雀": 10634,
      "热带": 10635,
      "瀑布": 10636,
      "谷": 10637,
      "山寨": 10638,
      "植物园": 10639,
      "缅甸": 10640,
      "火山": 10641,
      "北海": 10642,
      "湿地": 10643,
      "叠": 10644,
      "瑞": 10645,
      "风景区": 10646,
      "遗址": 10647,
      "星云": 10648,
      "娜": 10649,
      "自然保护区": 10650,
      "群": 10651,
      "温泉": 10652,
      "珠江": 10653,
      "九龙": 10654,
      "发烧": 10655,
      "无缘无故": 10656,
      "另一只": 10657,
      "暗示着": 10658,
      "一瞬间": 10659,
      "灵感": 10660,
      "点子": 10661,
      "流经": 10662,
      "逛": 10663,
      "一圈": 10664,
      "半球": 10665,
      "4S店": 10666,
      "索赔": 10667,
      "GM": 10668,
      "准": 10669,
      "凹": 10670,
      "拆": 10671,
      "热血": 10672,
      "第二部": 10673,
      "s": 10674,
      "死神": 10675,
      "大大的": 10676,
      "尾巴": 10677,
      "之子": 10678,
      "现状": 10679,
      "心意": 10680,
      "妹": 10681,
      "给钱": 10682,
      "送礼": 10683,
      "长辈": 10684,
      "微博上": 10685,
      "润": 10686,
      "谁家": 10687,
      "好用": 10688,
      "出品": 10689,
      "屏障": 10690,
      "全自动": 10691,
      "好多年": 10692,
      "车上": 10693,
      "油漆": 10694,
      "搜索引擎": 10695,
      "我练": 10696,
      "项链": 10697,
      "腰带": 10698,
      "多少级": 10699,
      "方可": 10700,
      "T恤": 10701,
      "先去": 10702,
      "天空": 10703,
      "三级": 10704,
      "than": 10705,
      "language": 10706,
      "except": 10707,
      "Chinese": 10708,
      "is": 10709,
      "理应": 10710,
      "水管": 10711,
      "呜呜": 10712,
      "关上": 10713,
      "楼下": 10714,
      "求教": 10715,
      "时有": 10716,
      "压强": 10717,
      "不均": 10718,
      "冲击": 10719,
      "枢纽": 10720,
      "乘车": 10721,
      "直达": 10722,
      "火车站": 10723,
      "票价": 10724,
      "北路": 10725,
      "高架": 10726,
      "多级": 10727,
      "换乘": 10728,
      "乘客": 10729,
      "北侧": 10730,
      "南侧": 10731,
      "直行": 10732,
      "进场": 10733,
      "车道": 10734,
      "杖": 10735,
      "1400": 10736,
      "猛": 10737,
      "很会": 10738,
      "宝藏": 10739,
      "飞龙": 10740,
      "270": 10741,
      "回避": 10742,
      "好点": 10743,
      "加血": 10744,
      "闪": 10745,
      "双刀": 10746,
      "44": 10747,
      "办学": 10748,
      "彩虹": 10749,
      "骑士": 10750,
      "大厅": 10751,
      "content": 10752,
      "were": 10753,
      "not": 10754,
      "棋盘": 10755,
      "河南省": 10756,
      "黄河": 10757,
      "南岸": 10758,
      "一处": 10759,
      "西汉": 10760,
      "初年": 10761,
      "刘邦": 10762,
      "项羽": 10763,
      "四十": 10764,
      "乃": 10765,
      "割": 10766,
      "边界": 10767,
      "两边": 10768,
      "东边": 10769,
      "霸王": 10770,
      "西边": 10771,
      "象棋": 10772,
      "品德": 10773,
      "棋": 10774,
      "可信": 10775,
      "战国": 10776,
      "末期": 10777,
      "棋子": 10778,
      "兵种": 10779,
      "国际象棋": 10780,
      "炮": 10781,
      "足": 10782,
      "推翻": 10783,
      "长期以来": 10784,
      "起源于": 10785,
      "一区": 10786,
      "下棋": 10787,
      "史料": 10788,
      "阳": 10789,
      "郑州": 10790,
      "该地": 10791,
      "出兵": 10792,
      "攻打": 10793,
      "楚国": 10794,
      "被迫": 10795,
      "两座": 10796,
      "接头": 10797,
      "铜": 10798,
      "钢": 10799,
      "复合": 10800,
      "导体": 10801,
      "高强度": 10802,
      "接地": 10803,
      "气象": 10804,
      "轨道交通": 10805,
      "引入": 10806,
      "波": 10807,
      "反射": 10808,
      "铁路": 10809,
      "机车": 10810,
      "牵引": 10811,
      "即用": 10812,
      "低廉": 10813,
      "腐蚀": 10814,
      "结晶": 10815,
      "显而易见": 10816,
      "•": 10817,
      "合体": 10818,
      "扮演着": 10819,
      "极其重要": 10820,
      "减慢": 10821,
      "土壤": 10822,
      "电阻": 10823,
      "碱": 10824,
      "0.25": 10825,
      "棒": 10826,
      "推移": 10827,
      "发生变化": 10828,
      "免": 10829,
      "开裂": 10830,
      "残留物": 10831,
      "溢出": 10832,
      "无氧": 10833,
      "内层": 10834,
      "低于": 10835,
      "遭到": 10836,
      "等同于": 10837,
      "节约": 10838,
      "便捷": 10839,
      "场合": 10840,
      "指标": 10841,
      "≤": 10842,
      "可塑性": 10843,
      "裂缝": 10844,
      "应用领域": 10845,
      "介质": 10846,
      "战队": 10847,
      "队员": 10848,
      "王朝": 10849,
      "俱乐部": 10850,
      "锦标赛": 10851,
      "阵容": 10852,
      "简要": 10853,
      "赎回": 10854,
      "来讲": 10855,
      "时机": 10856,
      "诚恳": 10857,
      "批评": 10858,
      "持有人": 10859,
      "恰恰相反": 10860,
      "监管": 10861,
      "完善": 10862,
      "水泥": 10863,
      "潜力": 10864,
      "密切": 10865,
      "观注": 10866,
      "把握": 10867,
      "祝您": 10868,
      "颈": 10869,
      "股骨": 10870,
      "克服困难": 10871,
      "过失": 10872,
      "故意": 10873,
      "司法": 10874,
      "先前": 10875,
      "不应": 10876,
      "定性": 10877,
      "刑事责任": 10878,
      "义务": 10879,
      "心理因素": 10880,
      "点评": 10881,
      "前段时间": 10882,
      "辛辛苦苦": 10883,
      "大半年": 10884,
      "一夜": 10885,
      "理赔": 10886,
      "何时": 10887,
      "返还": 10888,
      "赔付": 10889,
      "抵押": 10890,
      "赔偿": 10891,
      "社会化": 10892,
      "全球化": 10893,
      "现代化": 10894,
      "必要条件": 10895,
      "直播": 10896,
      "电视台": 10897,
      "平板": 10898,
      "湖南卫视": 10899,
      "枯燥": 10900,
      "相对来说": 10901,
      "执法": 10902,
      "危险性": 10903,
      "片面": 10904,
      "一心": 10905,
      "工作效率": 10906,
      "定为": 10907,
      "蒋介石": 10908,
      "抵抗": 10909,
      "沦陷": 10910,
      "故而": 10911,
      "异地": 10912,
      "恋情": 10913,
      "济南": 10914,
      "打过": 10915,
      "遇见": 10916,
      "贱": 10917,
      "嫁": 10918,
      "空洞": 10919,
      "说出": 10920,
      "有太多": 10921,
      "几分": 10922,
      "最有": 10923,
      "最爱": 10924,
      "心动": 10925,
      "果断": 10926,
      "断开": 10927,
      "主见": 10928,
      "排气": 10929,
      "暴击": 10930,
      "FB": 10931,
      "不大": 10932,
      "物理攻击": 10933,
      "斧": 10934,
      "耗费": 10935,
      "学长": 10936,
      "工作室": 10937,
      "友好": 10938,
      "第三方": 10939,
      "通讯": 10940,
      "不知情": 10941,
      "个人隐私": 10942,
      "之用": 10943,
      "发帖": 10944,
      "打不开": 10945,
      "ip": 10946,
      "漏洞": 10947,
      "封": 10948,
      "拔掉": 10949,
      "麦克风": 10950,
      "氟": 10951,
      "星": 10952,
      "注射液": 10953,
      "邮票": 10954,
      "我点": 10955,
      "稍后": 10956,
      "如有": 10957,
      "客服热线": 10958,
      "洋": 10959,
      "多年生": 10960,
      "草本": 10961,
      "花期": 10962,
      "叶子": 10963,
      "连同": 10964,
      "凉爽": 10965,
      "开花": 10966,
      "栽培": 10967,
      "肥沃": 10968,
      "疏松": 10969,
      "栽": 10970,
      "盆栽": 10971,
      "下旬": 10972,
      "而定": 10973,
      "防寒": 10974,
      "过早": 10975,
      "选取": 10976,
      "肩部": 10977,
      "抽出": 10978,
      "尖": 10979,
      "腐烂": 10980,
      "粘液": 10981,
      "植株": 10982,
      "花色": 10983,
      "春季": 10984,
      "草坪": 10985,
      "右眼": 10986,
      "大四": 10987,
      "穴": 10988,
      "药方": 10989,
      "2014": 10990,
      "患上": 10991,
      "讲讲": 10992,
      "头疼": 10993,
[...]
